#version: 0.2
Ġ a
Ġ o
i n
Ġ t
i t
Ġ b
Ġ s
Ġ c
Ġ w
Ġo f
e r
Ġ p
r e
l e
n d
h e
in g
Ġo n
l a
o n
Ġ f
it h
Ġw ith
i s
c k
e n
Ġt he
Ġa nd
a r
a n
a t
r o
Ġ d
i c
l o
Ġc o
Ġ h
Ġb o
Ġ is
e d
Ġ in
a l
Ġ m
Ġt o
o r
it e
Ġw h
t t
Ġ g
e s
a ck
a b
a g
Ġwh ite
o m
e l
a s
Ġ la
o o
t er
Ġt h
Ġs h
e t
ab le
Ġ re
u r
on t
Ġ it
Ġ n
oo d
a nd
Ġb la
Ġbo tt
o w
l d
s t
c e
Ġt able
i g
u n
i d
i on
l u
ag e
Ġbott le
u p
i r
Ġbla ck
re en
Ġ l
er s
Ġth at
c t
Ġs t
om e
i l
Ġc an
a in
Ġs it
a p
Ġbo x
Ġb e
Ġto p
Ġp ack
lu e
t ing
al l
m p
v er
Ġb lue
o ld
o t
u t
u re
Ġp la
Ġsit ting
Ġc ont
' s
Ġ k
lo w
Ġb ack
Ġ C
e x
u nd
Ġre d
Ġsh ow
on e
r a
Ġc h
ar d
ig h
Ġs ome
u s
Ġo r
i e
Ġa n
id e
Ġh old
Ġw ood
T he
c h
Ġcont ain
igh t
t ure
a d
Ġ le
Ġh and
ers on
Ġco un
en t
s s
o k
ex t
Ġc lo
Ġcoun ter
ro w
a m
Ġ v
Ġs c
ro und
Ġp erson
Ġg reen
o p
b el
Ġhold ing
Ġpack age
Ġ y
Ġ up
ic ture
Ġf or
Ġh as
y ing
i m
e ar
Ġs e
a ce
Ġf r
t h
g e
Ġ S
Ġ e
i p
Ġla bel
v e
b o
f f
Ġf ood
Ġs ur
re d
Ġco lo
Ġs o
r ic
Ġf ro
Ġp icture
Ġsur f
Ġsurf ace
Ġfr ont
Ġsc reen
ar t
Ġwood en
Ġco mp
st ic
in k
row n
Ġb r
Ġ lo
el low
Ġs m
Ġd o
s e
u ter
in d
Ġ r
Ġy ellow
Ġpla stic
Ġb rown
ic e
Ġcontain er
Ġ ro
Ġ T
u m
Ġd es
in e
r it
g round
Ġcomp uter
Ġ B
ir t
Ġshow ing
A n
a ir
e e
Ġb u
Ġ j
Ġsm all
Ġd e
Ġb ag
Ġf lo
Ġback ground
Ġ P
ar k
Ġ he
e y
i ck
Ġa re
a k
p p
Ġs p
Ġl i
le d
Ġp ie
Ġ M
ap er
q u
Ġ A
t op
ab ric
Ġs a
Ġd is
Ġf abric
Ġn ext
Ġp h
u ct
or t
Ġla ying
Ġp ro
c he
Ġp aper
Ġs ide
Ġ D
u l
c o
Ġla p
Ġbr and
Ġfro m
Ġflo or
Ġpie ce
Ġsh irt
im age
bo ard
Ġbu tt
Ġk ey
at ion
n er
Ġw all
Ġb y
l y
Ġp o
w o
Ġc ar
ff ee
Ġ image
Ġcolo r
Ġl ight
la ss
Ġco r
ra y
at er
u g
Ġm o
r y
e ct
Ġt e
Ġf la
Ġd ark
s ide
Ġbo ok
Ġdes k
il l
Ġco ffee
Ġt ext
p la
Ġ H
Ġd i
Ġp ink
Ġclo se
f t
t e
Ġro om
la r
an ge
Ġo ut
Ġbutt on
y s
Ġsome one
Ġcolo red
le ct
Ġo p
re y
Ġ F
il ver
p le
er e
i z
an t
Ġb ed
Ġm e
Ġw ear
Ġc le
Ġa l
an g
Ġo b
r ip
i b
Ġc ard
at h
Ġg lass
Ġa pp
Ġclo th
Ġdis pla
an s
k e
Ġs he
as e
Ġs ilver
ion s
t ed
j ect
Ġwear ing
Ġg rey
Ġp art
ow n
r ap
Ġkey board
ite m
Ġ item
Ġn ut
z en
re e
Ġor ange
d uct
it che
Ġm an
Ġob ject
Ġ G
Ġop en
Ġ W
rit ion
Ġa t
Ġp ur
Ġco ver
Ġpro duct
Ġshow n
i le
Ġw or
o us
a c
Ġ un
s h
i al
Ġ R
el l
Ġse e
itche n
Ġ L
Ġw rit
Ġde v
Ġ I
a ch
Ġc up
ig n
Ġdo g
ind ow
Ġ O
Ġk itchen
Ġfro zen
ick en
Ġla r
Ġhe ld
h ing
Ġnut rition
Ġ K
Ġph one
p e
u b
S ome
Ġdev ice
as t
Ġlar ge
Ġp e
Ġsit s
Ġc he
i x
Ġc re
Ġle tt
Ġt wo
Ġb ar
c ed
i es
t he
at o
Ġlo ok
Ġd r
Ġd own
Ġch air
Ġ "
a y
Ġe lect
ear s
ot o
Ġlap top
a re
Ġ N
Ġso up
th er
m ent
Ġpur ple
is t
r in
ot e
Ġst and
Ġg ray
p et
Ġr ight
st r
Ġo ther
n ed
re ss
t ion
Ġcar pet
b er
ro l
Ġst rip
Ġbe ing
Ġw indow
Ġf low
le s
Ġch icken
ic h
Ġg r
Ġli ke
Ġt y
Ġre st
Ġon e
Ġ 1
d s
Ġa bo
Ġph oto
Ġf o
Ġpack ag
n k
Ġcle ar
Ġcre am
ĠT V
Ġp at
ie w
s ome
Ġpla ced
Ġco ok
Ġ us
a ct
Ġcontain ing
Ġp rin
a mp
on g
Ġd in
o l
Ġbla nk
Ġcont rol
Ġ 2
Ġs ort
Ġm on
w e
Ġf e
Ġthe ir
Ġst o
Ġof f
on ic
t y
m o
f or
Ġo ver
Ġv iew
is h
it or
Ġbutton s
Ġw ater
Ġm ed
a ve
Ġwh ich
Ġty pe
Ġc ap
Ġy o
Ġj ar
Ġmon itor
Ġre ad
Ġa s
ĠC h
ad e
Ġdo or
i ve
Ġn ear
Ġle ft
Ġsa ys
r onic
Ġcor ner
t s
Ġit s
Ġin side
Ġdispla y
Ġa r
Ġh ang
str uct
h ite
re n
Ġm ix
Ġl ying
m e
Ġn um
u ce
u ch
ent s
Ġ E
om et
a v
Ġshow s
Ġelect ronic
Ġc ase
Ġp ot
Ġfla v
ro om
i re
p h
Ġre m
Ġc ur
d y
Ġm et
Ġg old
d e
at e
Ġbott om
Ġle g
omet hing
Ġt r
Ġdin ner
ul t
Ġpat ter
Ġblank et
es s
i an
t en
Ġm ic
Ġk n
Ġ J
Ġs et
es e
Some one
h er
Ġch o
i f
Ġn e
for m
Ġ ver
Ġin struct
Ġsa uce
Ġrem ote
Ġso d
Ġcounter top
Ġs omething
Ġli qu
Ġpackag ing
act s
Ġp air
Ġ V
Ġp re
Ġbe ans
Ġsh o
Ġstand ing
Ġmed ic
am e
co la
Ġmic row
Ġshe et
Ġpack et
form ation
v ing
Ġmet al
g o
Ġf acts
es t
Ġin formation
Ġt ur
t ain
Ġliqu id
Ġsod a
l lar
Ġlett er
oo k
Ġshe l
u ff
us h
Ġdes ign
ib le
ak e
al f
Ġdr ink
Ġinstruct ions
ar i
la ck
Ġw om
t o
g et
Ġt an
Ġt in
Ġth is
Ġwh at
ul l
Ġitem s
i ld
Ġwrit ing
P icture
Ġw as
n e
p er
Ġs we
Ġwrit ten
mp ty
ra w
Ġte le
Ġlook s
Ġc r
Ġme al
Ġto m
Ġfla t
red i
ĠC o
Ġn ot
Ġlo go
Ġtom ato
Ġte a
Ġcho cola
T wo
Ġv e
Ġ U
Ġs k
Ġd ress
en ed
V D
c or
re ad
u e
v en
ing s
u it
Ġf ra
Ġhang ing
Ġa g
Ġv is
Ġb l
ing redi
u lar
h ind
Ġm ach
Ġ ingredi
Ġa d
i o
Ġbe hind
Ġe mpty
Ġb ill
le t
Ġh alf
Ġbr ight
Ġw rap
Ġm ult
ĠD VD
re es
at ure
Ġmach ine
Ġflow ers
it al
Ġm ade
im e
Ġsto ve
Ġag ain
p ed
Ġrest ing
il k
W hite
Ġj u
Ġagain st
Ġdi ff
Ġchocola te
Ġl id
Ġv ari
Ġj e
ous e
Ġapp ears
Ġk ind
Ġsp e
Ġnutrition al
Ġabo ut
Ġ ed
er ent
Ġche ese
Ġver y
e p
Ġ en
Ġw ine
Ġletter ing
v is
Ġpatter n
Ġwor ds
mo st
Ġth er
Ġp ant
Ġbo w
ver al
ath er
Ġ qu
Ġdiff erent
Ġt ile
Ġto w
us e
Ġme at
Ġc and
Ġp age
Ġd ig
Ġp en
Ġlo tion
Picture d
op ened
Ġt ub
Ġs l
Ġmicrow ave
Ġ i
Ġh air
Ġs n
ip s
g g
Ġc on
Ġco uch
ĠC D
Ġcontain s
vis ion
Ġingredi ents
ak er
Ġus ed
all y
B o
d er
as s
Ġstrip ed
b le
c y
e f
at ed
0 0
Ġwom an
Ġdo llar
s o
Ġprin ted
Ġ ra
it ion
Ġst ick
b e
Ġflow er
Ġ round
Ġdig ital
o red
Ġf ull
Ġp ort
ug h
ater ial
Ġabo ve
Ġp an
Ġlett ers
n t
Ġvari ous
Ġhe ad
Ġun opened
Ġbow l
d le
Ġm aterial
Ġtele vision
Ġ und
g er
Ġf il
Ġdispla ying
Ġvis ible
Ġpant s
Ġcle an
Ġ ex
Ġr ug
Ġbe er
Ġc am
u d
l l
Ġs qu
o s
Ġpot ato
m in
Ġb ath
Ġp ast
ig e
as h
Ġflav ored
Ġa c
a f
Ġfo re
Ġs ing
Ġm ar
B lack
most at
I n
oo t
Ġal l
Ġtur ned
Ġc ell
ro ss
Ġlook ing
Ġg round
Ġbe ef
as on
che d
Ġmedic ine
Ġm ilk
pp er
Ġc al
at ur
Ġle ather
bel l
Ġve get
r ist
Ġst e
P art
Ġp ow
Ġth ere
Ġcloth ing
it y
Ġshel f
Ġund er
o b
Ġf an
Ġf ing
Ġbo dy
Ġcard board
Ġyo u
Ġl it
Ġbutt er
ph one
d ing
Ġther mostat
Ġco nd
r al
Ġs y
amp bell
Ġnum ber
i a
Ġc art
Ġh ouse
ric e
Ġc at
c es
er a
Ġch ar
Ġs up
Ġch ips
Ġsing le
s ed
Ġse en
Ġw e
Ġ 3
Ġveget able
Ġthe m
Ġl ong
Ġsh ort
Ġfra me
Ġcam era
Ġb ut
Ġs er
Ġf ace
Ġco m
Ġmo use
Ġbe ige
Ġf old
Ġo ld
Ġcor d
Ġed ge
u al
Ġpast a
il low
Ġju ice
ĠC ampbell
Ġgr an
Ġcur ren
L E
a z
Ġbl ur
I N
n ing
is s
Ġm id
Ġm in
ir c
Ġkey s
Ġje ans
E R
Ġc ab
Ġf oot
Ġp ain
Ġn o
ĠS p
a le
b ers
Ġl in
A R
in et
Ġtub e
u st
Ġse veral
ĠS t
Ġdisplay ed
Ġ z
il ing
E D
Ġw ire
Ġp illow
un ch
Ġsh ap
Ġs iz
Ġc irc
c a
Ġp lu
Ġh is
i v
oo l
Ġmid dle
m on
Ġre f
ap p
Ġcab inet
Ġs le
Ġp ill
Ġs ink
Ġflav or
Ġflo ral
iz z
ck s
Ġg ame
Ġout side
en ter
at ing
Ġwh o
Ġar m
Ġleg s
o on
Ġs un
Ġse ason
Ġi P
ic al
Ġnum bers
Ġp er
Ġcor n
er ed
Ġdes c
Ġopen ed
Ġapp le
a il
Ġclo ck
Ġm at
c lo
o d
Ġtow el
Ġa round
Ġt ree
Ġcook ing
Ġp op
in s
Ġsqu are
w ay
Ġli ving
sh irt
Ġo ven
Ġc e
is e
Ġm en
co de
Ġcal led
H ere
P ack
Ġc enter
ere al
Ġ 4
an ce
Ġh ard
izz a
f ul
i um
n g
re ct
Ġm ug
Ġpla te
on i
Ġin d
Ġst y
Ġstrip es
amp oo
Ġb lo
Ġc ereal
Ġth ree
Ġh ot
one y
Ġto y
Ġsn ack
Ġt rees
Ġsho e
Ġsh in
Ġbar code
m er
Ġd raw
Ġar t
b all
Ġm us
Ġfil led
Ġare a
Ġdi rect
Ġbath room
Ġf ur
ot her
Ġwor d
Ġs ign
Ġbottle s
Ġdi al
ag es
Ġsh ampoo
C lo
e m
Ġa tt
Ġso ap
Ġp izza
Ġport ion
Ġ 5
Ġsp ray
Ġhold s
rap h
Ġelect ric
Ġte mp
Ġfr uit
Ġpan el
Ġt ime
Ġst uff
ĠO F
u c
Ġin to
al k
Ġde cor
Ġla mp
ip le
Ġblur ry
at ch
ic es
Ġan other
Ġbook s
Ġ low
ck et
re at
Ġpart ial
Ġoff ice
Ġsk y
Ġcand y
Ġs al
Ġn ote
Ġpla y
Ġcover ed
m s
Ġman y
il la
Ġf ac
M A
Ġin st
N D
Ġpo ss
Ġ 7
Ġg ar
l i
Ġre ct
ber ry
Ġrect ang
Ġt ag
Ġt ak
Ġm ess
u mp
tt le
Ġg ood
Ġce iling
T h
Ġb ro
he d
av es
app ears
er ature
Ġm ag
i ally
er y
Ġpe pper
on es
Ġsho es
Ġswe ater
Ġn ood
Ġch ild
O T
g an
ar y
Ġh ome
s er
t ch
Ġ rice
or k
Ġkn ob
Ġcond ition
a ched
ic ed
tt ing
Ġne ck
Ġtemp erature
un tain
Ġcolor ful
Ġe nd
Ġshort s
Clo se
p ing
r ink
Ġh or
Ġin c
Ġpla nt
A C
Ġcan s
Ġvegetable s
Ġgran ite
un g
Ġal ong
s i
Ġb as
Ġg o
Ġs w
Ġle aves
ib ly
Ġfo ur
Ġsty le
Ġmo v
n it
Ġst re
ĠO N
Ġprin t
Ġac ross
Ġh er
B lue
t le
v es
Ġh um
Ġla id
ct ion
Ġfe et
Ġmus ic
le ss
Ġatt ached
i ed
o ut
Ġbe ver
Ġle mon
C an
b ook
r ont
s ter
u ld
Ġpart ially
some one
Ġb re
ro ugh
Ġcan ned
Ġso ft
Ġdis h
le nd
al ue
ur t
Ġclo sed
Ġf ree
Ġup side
Ġcolor s
ot s
Ġwindow s
Ġ2 0
Ġseason ing
al m
Ġn ame
Ġco de
Ġa ir
Ġt it
Ġde g
Ġsto re
Ġfing er
Ġh ave
Ġpla ce
ĠP ep
l er
s p
Ġmult iple
or y
lu min
be led
s c
Ġwrap ped
Ġdirect ions
A S
Ġb an
Ġb all
l ic
u es
an ut
Ġd ate
Ġcur tain
Ġinc lu
m an
Ġd irt
Ġla beled
Ġhand le
Ġbu ild
Ġ Y
Ġm ark
Ġth rough
Ġswe et
m b
Ġb es
Ġbever age
b ur
at or
Ġread s
Ġfold ed
ĠPep si
G E
m as
ĠCh rist
Ġpatter ned
Bo x
g urt
Ġposs ibly
i led
Ġb ur
Ġmo st
Ġse a
ple ment
r ing
Ġne w
Ġcurren cy
Ġmov ie
Ġa m
Ġw ell
as ter
ide o
Ġdis c
Ġtomato es
ĠU S
Ġstick er
Ġsle e
Ġshin y
in t
g n
la d
el y
Ġe y
Ġrest s
T E
Ġc d
Ġh o
ush room
y l
in al
Ġp ark
Ġco up
Ġst raw
Ġobject s
Ġus e
o la
er ry
ic an
Ġbes ide
e w
g y
Ġb ak
ro r
A pp
che s
h one
Ġw rink
ab y
ĠB e
Ġgr ain
Ġsup plement
Ġsiz e
Ġhum an
Ġdeg rees
Ġwor k
Ġex p
R ed
Ġt ap
un k
st em
Ġyo gurt
Ġfac ing
B ack
Ġc able
Ġw he
Ġrectang ular
u ck
Ġpla ying
Ġsm art
Ġread y
ĠChrist mas
Ġan im
Ġv ideo
Ġc ut
Ġdi et
Ġfe w
lumin um
Ġs and
Ġpe anut
clo th
F ront
O N
Ġb ig
atur al
v ed
Ġt ex
ir l
ĠB o
k n
Ġb ase
tt er
Ġhe art
Ġmedic ation
an illa
Ġg i
ĠM ar
Ġcart on
tch a
m all
op le
rip tion
Ġfore ground
IN G
k ey
Ġs ub
a lo
Ġshap ed
m ed
Ġst ack
Ġj ack
ĠM o
Ġche ck
ren ch
Ġchair s
o or
z z
Ġe ach
Ġpicture s
Ġgr ass
Ġphoto g
w hite
Ġdesk top
Ġcook ies
Ġsal t
Ġm ay
um b
Ġpo cket
r ies
al th
Ġm ac
Ġm ushroom
Ġto o
ac ter
Ġwas hing
Ġmult i
Ġdirt y
Ġtex ture
Ġo un
Ġt w
Ġb aby
Ġw atch
en s
Ġpe ople
Ġpotato es
Ġlit tle
Ġ &
Ġsh ot
ĠC he
Ġb read
tt e
ig inal
Ġbox es
Ġro ll
Ġmar ble
f o
Ġt ra
ĠA pp
App ears
r i
ver t
the s
w n
Ġlo t
ĠF rench
Ġsy stem
r ib
Ġs ug
Ġtable cloth
Ġpackag ed
Ġ 6
Ġe qu
Ġpie ces
O R
it am
en ce
Ġr un
it ch
Ġc ush
Ġp ad
Ġpre p
Ġra d
ĠiP hone
Ġcondition er
Ġb ra
Ġf ive
Ġsh ad
id ent
Ġanim al
Ġref lect
Ġa luminum
tt i
Ġpow er
Pack age
n y
Ġh ere
Ġbo ard
ile t
Ġwho le
Ġspe aker
Ġmag az
Ġ /
Ġ ext
om p
l ish
Ġwh ile
ig are
Ġdress er
Ġclean er
Ġf ish
Ġclo thes
Ġro ast
Ġde p
Ġfe atur
ĠJ o
Ġfeatur ing
e ur
Ġbe en
Ġclo u
indow s
P la
k a
re sh
Ġf ire
Ġl ist
Ġbe low
Ġpla n
Ġcap tcha
nit ure
Ġst ain
Ġbar s
Ġad vert
Ġt iss
Ġb ir
Ġfur niture
l ip
u la
an y
ic le
Ġst ill
ĠI S
a ys
Ġc igare
Ġla ys
Ġst ar
Ġyo ur
Ġwas h
kn own
a la
Ġc ake
Ġbed room
Ġbuild ing
Ġb unch
ag he
Ġl ine
il i
Ġal so
Ġun known
Ġsp ice
MA GE
L L
lo red
Ġg ro
Ġe gg
ĠA mer
k in
p y
Bo ttle
ĠApp le
eur ig
h ol
l ing
l ian
Ġ ice
Ġh ow
Ġcirc ular
c up
c ial
Ġco llar
Ġto ilet
Ġbrand ed
Ġread ing
Ġw o
Ġpill s
aghe tti
G reen
s et
Ġd en
Ġre c
ĠA r
iz er
Ġmess age
k et
Ġapp lian
Ġbl ind
Ġz ip
Ġjack et
Ġp ap
sh ot
Ġcr ack
Ġsea led
Ġco tt
ĠK eurig
Ġsug ar
H E
Ġt iled
Ġw ar
Ġgold en
Ġmicrow av
Ġsk in
Ġfing ers
Ġmagaz ine
Ġ ear
Ġrad io
S e
f a
Ġ ent
Ġw rist
Ġp alm
ĠA ND
Ġlin es
Ġdesc rib
Ġrun ning
Ġdep ic
I m
Ġ '
Ġb et
Ġplay er
" .
A N
we en
Ġbet ween
Ġpow der
Ġchar acter
Ġcush ion
Ġf ig
at ter
ee p
ĠP o
ĠH e
c le
v el
Ġc lu
Ġfore ign
Ġinclu ding
S t
ro p
Ġr ing
Ġh igh
un t
Ġse tting
gg ed
Ġcoup le
L AC
Ġ 8
on ut
Ġm ake
Ġun it
Th ree
H and
b s
ar oni
at es
Ġside w
ĠR o
S mall
Ġpla id
Ġhand s
am s
Ġ1 00
Ġmicrowav able
Im age
a i
n a
Ġ The
ot h
ip e
Ġli es
ĠG reen
ph ones
w ood
Ġc ross
Ġn atural
Ġtable t
Ġso fa
ĠM ac
Ġclose up
ĠCh icken
a ur
Ġco la
Ġg el
Ġg ra
Ġv anilla
ation s
Ġbas ket
a h
m bo
ĠP e
Ġ1 0
Ġ1 2
Ġtele phone
Ġhor iz
O n
R E
l ine
ig er
Ġk id
Ġse at
ĠW indows
ng u
m at
Ġ il
Ġ im
Ġc ro
on s
Ġm ath
Ġkn it
if ic
ĠMo untain
a x
he s
Ġla ngu
ress o
Ġcurren t
Ġpain ting
Ġon ly
Ġd ry
un ted
Ġor iginal
Ġsur round
omp uter
b u
ne ath
Ġunder neath
Ġcart oon
Ġsub st
Ġoun ce
A P
le y
la nd
Ġbag s
Ġdesc ription
Ġinst ant
Ġstre et
Ġ Ġ
ĠS h
Ġwom en
Ġtap e
Ġhoriz ont
Ġt ray
Ġt est
Ġc as
Ġf lu
Ġla und
Ġv itam
Ġse ction
Ġg raph
as te
Ġsp aghetti
n s
n am
in es
ing er
Ġco l
Ġpap ers
or m
Ġplu gged
c ess
en e
at ive
Ġwh ere
Ġdr ive
er o
al s
ĠS e
oo th
Ġsa us
Ġwrink led
t ions
is ter
Ġch ili
Ġor gan
Ġmo unted
Pla stic
Ġper f
d oor
l ight
Ġ 9
Ġso cks
Ġlight s
yl ind
Ġden im
I T
Ġf at
Ġhold er
Ġe at
Ġscreen shot
Ġnood les
Ġey e
U T
il t
lass ic
Ġste ak
Ġlow er
Ġmost ly
Ġslee ve
Ġapplian ce
a ut
n el
p en
Ġ Q
Ġc er
Ġh at
Ġup per
Ġshel ves
Ġwrap per
Ġhead phones
Ġmen u
Ġtak en
Ġlaund ry
Ġc ylind
ĠP ro
Ġhang er
Ġclean ing
Ġmac aroni
o u
Ġde ter
b y
o nd
w ard
Ġm ir
tt es
ĠCo ca
ident if
Ġo z
Ġto r
Ġle af
mbo l
p art
u zz
v al
Ġre g
Ġre l
um e
Ġtr ans
Ġsl ight
Ġsy mbol
Ġser ving
Ġchild ren
Ġ20 1
b r
d ed
n ect
z e
Ġt en
as ted
Ġv ase
Ġpo ster
Ġen ter
Ġim ages
Ġlangu age
B ook
re am
Ġthe y
ĠA l
Ġwor n
ĠO r
Ġtr im
Ġbak ed
Ġsubst ance
I MAGE
Ġpe as
ise ment
Ġtexture d
E N
c co
Ġpro g
ĠL e
mo nd
Ġcand le
Ġsmart phone
alth y
Ġ er
Ġb el
Ġw alk
Ġtable ts
Ġcover ing
p o
Ġa ss
Ġco ca
Ġdesign s
ĠCo ffee
Ġstuff ed
a u
o ur
w are
Ġb lend
Ġg irl
as y
Ġl ime
ut h
Ġan t
Ġcomp any
Ġfla sh
ĠI t
ĠCh o
Ġtr ash
Ġdress ing
Ġcon c
Se veral
P erson
an it
il le
ĠC O
Ġpo lo
Ġsheet s
Ġcon nect
Ġcurrent ly
cco li
Ġt all
Ġd rap
Ġshow er
ĠT HE
Ġ el
Ġb us
Ġp ump
Ġg u
Ġv alue
Ġexp ir
Ġgi ft
Ġequ ip
Ġcott on
it s
ar n
al ian
Ġth in
Ġcontain ers
ve lo
Ġpo l
av y
Ġnood le
T op
g ent
n ut
Ġg um
ur ing
Ġbe ar
Ġcarpet ed
Ġmed ium
Ġcirc le
Ġref r
Ġtit led
Ġb and
Ġp rice
Ġco ke
or s
Ġn ight
ĠR e
Ġfra med
' t
i el
Ġo il
tt ed
Ġsc ent
Ġcar s
Ġdispla ys
Ġcup s
Ġmir ror
Ġequip ment
o re
p ack
ok e
ĠM ic
Ġprin ter
Ġsiz ed
Ġadvert isement
Ġp in
la ce
ĠD r
ĠI T
A L
Ġ .
el lo
am ic
ĠD e
lar m
Ġpur se
Ġchar ger
Ġmin i
Ġwire s
Ġgood s
ĠAmer ican
aur ant
Ġin ter
Ġm oney
Ġfor m
ĠE ng
Ġen velo
Ġd ots
ed s
Ġto uch
Ġout door
O ne
er gy
Ġsc ale
cor n
Ġwhe el
Ġperf ume
A B
C o
c il
e o
n et
he l
Ġre p
Ġst rap
co hol
Ġpo d
Ġfe ature
ĠSt ar
ĠUS B
C omputer
w ork
Ġ (
Ġbe ad
Ġproduct s
LE AR
Ġgraph ic
Ġrel ie
y ard
Ġw al
is c
lu str
ra ft
Ġpro ble
ĠW AS
Ġrest aurant
Ġblind s
Ġa larm
in i
Ġre cor
Ġn ap
id er
id es
Ġst art
Ġsc r
Ġsp oon
qu e
Ġpo in
Ġcho ice
ĠV alue
Ġclou ds
Ġplan ts
Ġcigare ttes
Ġs anit
an a
ĠC al
Ġwall s
Ġswe at
iv id
Ġsle ep
Ġphotog rap
O W
or d
igh ter
ip es
ĠP LAC
Ġsa lad
Ġil lustr
a red
Ġk eep
Ġback side
Ġso ck
Ġbr ick
Ġal cohol
Ġ2 00
Ġnot hing
Ġneck lace
Ġbase ball
n ey
pla ce
Ġju st
so ft
Ġshap e
Ġplu g
Ġt im
la y
Ġbe aut
ĠC an
ill s
get her
Ġsl iced
Ġhard wood
i er
ent y
Ġhe l
ak ers
co lored
Ġver t
Ġbro ccoli
Ġpark ed
Ġsaus age
Ġslight ly
Ġrefr iger
ro soft
Ġd el
ak es
Ġsp ices
Ġstand s
Ġcontrol s
Ġste el
Ġsidew ays
Ġdeter gent
O O
Y ellow
c onut
g lass
r ight
lect ion
Ġche st
Ġpen cil
Ġshad ow
Ġwo ven
Ġorgan ic
n ot
t wo
Ġ Z
Ġf resh
Ġh am
Ġto gether
Ġcont ent
Ġind ivid
unk y
Ġexpir ation
Ġo at
Ġp et
ra m
Ġch erry
Ġmo b
Ġdog s
Ġelectric al
c ase
m et
Ġpla in
Ġclo set
bo x
Ġro ad
iz e
Ġgo ing
Ġcer amic
Ġb atter
et y
il y
ĠG reat
Ġcook ie
Ġtit le
ĠPLAC ED
H I
Ġs ter
on y
Ġd ay
Ġal mond
Ġgran ola
Ġmob ile
c an
Ġt ell
Ġcoun t
ric al
bur y
Ġzip per
Ġhorizont al
r an
ro zen
Ġl is
all ic
Ġglass es
Ġpop corn
Ġsnack s
Ġgar lic
Ġfire place
Ġsanit izer
a w
b lack
Ġf ence
Ġto ol
Ġth ings
Ġcont ents
ad ing
Ġsa ying
Ġdin ing
for ter
Ġind ic
Ġbre ast
lo r
Ġbo r
ut rition
est ions
Ġtur key
uit ar
Ġcom forter
Ġenvelo pe
L ook
o om
Ġt ee
Ġp or
nd er
Ġm as
Ġto oth
Ġg lo
Ġst r
ĠD ell
Ġpre s
Ġtile s
ud io
ĠJo h
Ġdrap ed
ĠMic rosoft
B rown
a ff
v ers
in a
ar ot
Ġm aker
es tion
Ġsm ooth
TE M
Ġcrack ers
ĠIt alian
E S
a uc
f ast
h at
le ts
Ġg inger
Ġse tt
ĠD i
Ġcontrol ler
Ġmet allic
Ġcheck ered
iel d
d d
d es
h o
k ing
ar ge
ont ain
ĠS o
Ġkn ee
if e
Ġsand w
Ġstack ed
AB LE
Ġbo th
Ġre co
Ġr ack
Ġro asted
Ġpo und
ĠR ed
Ġtiss ues
Ġsurround ed
Ġrefriger ator
Ġster eo
S ilver
Ġcan not
Ġle an
Ġv o
Ġj ug
Ġra is
od or
Ġdraw ing
Ġrec ipe
g reen
Ġ X
Ġg uitar
Ġth umb
Ġch ain
ĠT e
Ġsn ow
Ġsup p
Ġblo ck
ĠEng lish
Ġsett ings
A T
d ition
t or
t es
Ġco ol
ab ly
Ġsh op
Ġe mb
Ġr ib
Ġr ub
ak fast
Ġsp ace
Ġpo st
Ġsho uld
tain ment
Ġcabinet s
Pack ag
Ġnote book
Ġcylind rical
f la
v y
Ġa top
in nam
Ġh oney
Ġin k
am es
che t
ĠI TEM
Ġqu estions
innam on
b ack
Ġ ic
Ġt ie
Ġf lip
ic o
Ġm ust
Ġst at
ĠS to
ĠH ar
ĠN ew
Ġspe ck
Ġwal let
n is
n ess
Ġc el
Ġp ud
el f
Ġde odor
Ġmo uth
Ġplace mat
Ġindivid ual
Ġbor der
e en
Ġb are
ar m
id ge
ĠM c
ĠM e
Ġcream er
Ġmix ed
Ġpattern s
Ġsl ip
Ġmicrowave able
Ġwire less
Ġart icle
Ġdecor ative
Ġmay be
L O
p es
Ġa udio
Ġg reat
am ond
Ġdo ll
ee f
Ġwe bs
Ġcom ing
Ġcurtain s
Ġenter tainment
Ġwebs ite
g es
p ad
Ġ -
Ġco uld
Ġco conut
Ġis s
Ġcar ro
Ġpe ach
Ġpain ted
ĠiP ad
Ġext ra
en er
ver y
us s
Ġperson s
Ġsp in
are nt
ĠU P
Ġi mp
bur ger
Ġgro c
Ġfig ure
Ġpol ka
Ġdeodor ant
Ġc lassic
an k
Ġl ighter
ard en
ĠS a
ĠB UT
Ġmo untain
iv es
ail s
Ġbooks hel
Ġspeck led
m y
Ġ $
Ġ ut
an as
row s
ĠT h
Ġdr ug
Ġtak ing
ams ung
ĠMac Book
bu cks
Ġreco gn
S E
S ide
re te
Ġon to
ro id
Ġsp ort
Ġop tions
ĠG er
ĠI n
Ġcap s
Ġtr uck
Ġdrink ing
Ġje an
ER S
sp aper
Ġbir d
L arge
O P
P h
g ing
Ġp ile
ith er
ro ger
tt ered
Ġk it
ĠC LEAR
Ġme as
Ġinstruct ion
Ġvis ual
Ġcon s
Th is
l in
r ite
Ġw ipes
Ġp ick
Ġd et
Ġh ung
ĠC ream
ĠD el
ĠCo la
Ġwe ight
Ġphotog raph
Ġtw enty
Ġcharacter s
Ġrelie f
Ġpud ding
G rey
a ches
b um
d ay
g ers
k es
m ade
o g
s w
ic y
Ġpicture d
Ġdi amond
Ġnear by
Ġvitam ins
Ġtrans p
glass es
I t
Ġ 0
Ġc alo
an cy
ure d
Ġfor k
Ġbu l
Ġcream y
ĠPe pper
Ġrib b
Ph oto
I C
re me
ff y
Ġcomp act
ĠN OT
Ġfo il
Ġpackag es
est le
Ġspe cial
Ġknit ted
b lue
i or
Ġf uzz
lo ok
Ġco ld
Ġg rap
ap s
Ġpack ed
Ġan y
Ġy ard
ĠS amsung
ĠB eef
Ġsp read
Ġcor ds
af e
Ġser ve
ĠSp an
Ġtiss ue
Ġer ror
S h
i ke
Ġc u
Ġp ull
ag na
Ġth ick
mp t
Ġlo ck
ĠP lay
Ġsa chet
Ġpro b
iz ing
if ul
Ġwar ning
Ġclu ttered
Ġconc rete
ĠStar bucks
L e
Ġp ure
Ġm uff
Ġto aster
Ġla wn
Ġbe an
Ġso l
Ġdis k
ĠE x
ump led
Ġbre akfast
Ġnew spaper
Ġt arot
Ġs ne
Ġf ont
Ġto ys
el s
ĠS m
ĠB u
ĠM ont
ĠW hite
Ġcap ture
Ġve h
Ġlin ed
Ġpark ing
Ġbak ing
Ġconnect ed
Ġcarro ts
Ġrecogn ize
in ess
Ġp ress
en sed
Ġst one
Ġbox ed
am a
Ġqu estion
ual ity
Ġsupplement s
Ġbra ce
Ġphotograp her
O L
b led
i red
Ġ if
Ġs ch
Ġs ix
Ġp ork
ic s
tt y
Ġg e
Ġch ip
Ġy arn
Ġe ither
iz ed
Ġal bum
ĠK roger
Ġstrip e
Ġpre gn
Ġmess y
ĠAr ab
St ation
Ġvert ical
Ġiss ues
p ers
p aste
Ġc are
Ġp ine
ir on
ĠP ure
Ġhe ating
qu et
me al
Ġelectronic s
Ġwrap ping
Ġpillow s
Ġscent ed
Ġillustr ation
Ġgroc ery
Ġtransp arent
a id
c us
ic a
Ġla nd
min t
MA LL
Ġreflect ion
Ġemb roid
c ake
an ch
Ġco py
al low
et s
Ġcan ister
ĠS te
ĠB ar
ĠI N
Ġbutter f
Ġass ort
Ġel se
i mp
Ġa sh
Ġt un
Ġc innamon
Ġd rop
Ġn ice
Ġst ring
ĠC r
ard s
Ġan sw
ok ia
ĠT o
um ent
ĠB lack
Ġhe ater
Ġpro t
Ġal most
ĠK raft
Ġas king
Ġdraw ers
Ġmas hed
dition al
Ġbookshel f
Ġfuzz y
ĠSpan ish
C D
r ie
Ġb un
le n
Ġon ion
Ġd iced
ĠA d
Ġpo int
ant a
Ġcal c
Ġmark er
Ġdepic ting
Ġgra vy
Ġten nis
Ġrep air
Ġsweat shirt
Ġsleep ing
Ġprob ably
a co
c ent
f red
p s
Ġp ar
Ġco in
Ġla s
Ġst ap
Ġe m
ĠT ra
Ġmo ist
Ġtr i
Ġingredi ent
Ġad d
ens il
Ġshad es
Ġwalk ing
Ġnap kin
ĠCan ad
Ġspin ach
Ġut ensil
m ing
o ff
t ra
ome ter
ap ple
Ġv ac
Ġun identif
Ġus er
av ing
Ġport able
ball s
Ġher b
Ġey es
ĠMar ie
Ġprep ared
Ġegg s
ĠGer man
fred o
i ver
re w
tt om
Ġg arden
all s
ĠC oke
ĠT ABLE
ĠN okia
Ġsun glasses
clo se
Ġdecor ated
Ġgar ment
Ġbra ille
Ġcount ry
Ġpres ent
5 0
Q uality
d el
i ous
â Ģ
Ġt ab
Ġp ul
at s
Ġbo ot
ter n
ver e
Ġan g
ĠS H
Ġtext book
ĠH oney
Ġout let
Ġbed sp
ep t
Ġcond ensed
Ġz ero
ĠPo tter
Ġkid s
Ġbatter y
Ġtooth paste
Ġmust ard
Ġbedsp read
C h
N utrition
h aps
o se
r ange
u ro
in o
on al
Ġf ly
el nut
et ch
Ġre ce
Ġn on
ion al
Ġst or
ĠC ar
Ġch unky
Ġse vere
bo dy
Ġdis t
ac on
ub le
az elnut
li ke
Ġfig ur
Ġdrive way
ĠQ u
Ġbus iness
Ġproble m
Ġsandw ich
ĠPlay Station
A M
g resso
u um
Ġo l
Ġs uit
Ġc lip
Ġp ut
re s
Ġh ous
Ġse c
Ġlo c
Ġapp ear
ĠE asy
Ġmar bled
Ġinst al
Ġgrain ed
alo g
Ġpocket s
Ġbel t
ĠCal lend
Ġoat meal
Ġbrace let
g ar
i able
Ġt alk
Ġf ar
Ġg all
Ġg row
Ġfloor ing
ĠG r
Ġpe aches
Ġty pes
Ġfo cus
Ġpat io
uff er
Ġshin ing
Ġhor se
Ġho les
Ġent ire
ontain er
Ġvac uum
ĠCallend er
A ND
ĠC ro
Ġpo s
Ġmo re
Ġnut s
Ġvari ety
Ġdescrib ing
Ġfeature s
HI TE
Ġsch ool
Ġpregn ancy
Ġtri ang
e b
z er
Ġs uch
Ġg as
as es
ur ple
ent al
ak ing
Ġfla g
ĠR ice
Ġpacket s
Ġther m
Ġqu ilt
Ġmin ut
OT T
ser t
Ġban ana
Ġflu ffy
ĠCho ice
Ġveh icle
n o
v ice
it r
is ing
ie ce
Ġsc ene
Ġro ck
Ġdis pen
ber ries
itch ing
Ġgall on
O U
r ance
nd e
Ġf le
Ġsh aker
Ġre mo
ir st
Ġperson al
ĠS c
Ġbr ush
ĠD ew
ĠH ot
ĠH am
Ġche dd
io s
Ġmult ico
dle ss
Ġwe b
Ġtowel s
uc c
Ġbro th
Ġclou dy
Ġstain less
Ġgro up
Ġcro ck
Ġbeaut iful
Ġsport s
Ġlas agna
Ġchedd ar
Ġ iced
Ġa ct
Ġa ut
Ġs im
Ġs ides
er ing
Ġp ass
Ġf un
ab el
am el
Ġmo del
ĠH ouse
ree k
ĠL ite
Ġ2 4
Ġne ed
Ġje w
ri mp
Ġdry er
Packag ing
Ġcaps u
Ġdispen ser
S H
a j
h old
k y
l ies
w ell
Ġo val
in ese
Ġt reat
Ġd ot
Ġh all
Ġsc iss
ĠS ch
ip ped
Ġpro mpt
Ġpo uch
Ġte al
ant s
Ġsee ms
Ġmic ro
Ġwas her
Ġcr umpled
Ġtow er
Ġlit er
Ġsup er
Ġold er
Ġmat t
ĠPro gresso
Ġbead s
Ġlis ted
Ġcalc ula
OTT LE
c er
Ġre la
ct ions
Ġro t
ĠB r
ĠB lue
Ġcor dless
Ġpat ch
Ġcigare tte
Ġvitam in
Ġtim er
oom ed
Ġhous es
C or
D ark
i la
er nel
as ian
Ġn avy
ĠS un
Ġe le
Ġlabel s
Ġop er
ĠCh inese
ĠiP od
Ġper haps
Ġsquare s
Ġ5 0
nit ed
Ġprog ram
Ġrub ber
ĠHar ry
Ġprot ect
Ġmoist ur
Ġsciss ors
Ġmatt ress
C le
G lass
U R
U n
f e
m ill
p aper
Ġ An
Ġb en
Ġg ames
ter s
Ġth ing
Ġst itching
Ġch op
am ily
ĠB O
Ġhe althy
ĠH P
Ġman ual
Ġus ing
amp h
Ġsw itch
Ġstraw berry
Ġtra vel
Ġtouch ing
OO D
ĠSto uffer
ĠMont e
F rozen
g ed
Ġ iron
Ġt read
Ġb acon
er c
al ley
ĠS w
ĠT om
ĠM ex
we et
auc asian
Ġvo lu
Ġembroid ered
A IN
B e
Ġf ill
Ġco at
Ġco ugh
al t
Ġla dy
Ġv ine
th ing
Ġhe at
ak i
Ġcard s
Ġdr ied
Ġcook ed
Ġdoor s
Ġdoor way
Ġmeat balls
Ġpow ered
Ġchar ging
ale nd
Ġcol lection
Ġsol id
Ġdrop s
Ġstap ler
Ġstor age
b or
d ge
e le
p t
Ġw ay
lo af
Ġco aster
Ġsh rimp
Ġlo ts
ĠB OTTLE
Ġflo ur
ĠK ool
ian o
Ġkn ife
Ġsod ium
Ġcr an
Ġcr unch
Ġknob s
fo re
ĠCro ck
amph let
alend ar
W ood
t on
er ios
es co
Ġtable top
Ġst amp
Ġpo lish
ĠL ight
Ġche w
ol i
Ġnum er
Ġdesign ed
so le
Ġblo nde
Ġrectang le
Ġtread mill
i lar
k ely
s on
w rit
Ġ identif
Ġw in
Ġh ook
Ġla y
Ġback yard
ĠC or
Ġse eds
ĠS anta
ĠW HITE
ĠU nited
AC K
ON T
ĠBo dy
ĠHe althy
ERS ON
Ġgrow ing
Ġ lu
Ġp amphlet
Ġf in
Ġf ield
Ġwith out
Ġd ell
Ġh im
Ġm ight
ag ed
Ġtable s
Ġhand les
Ġlabel led
ul ly
ty le
ĠU n
Ġhair y
Part ial
Ġban k
Ġslee ved
Ġwrink les
Ġshould er
LO SE
Ġtherm ometer
Ġmultico lored
M ult
p os
x e
Ġb it
Ġc la
Ġf ix
Ġm ot
Ġg la
as p
Ġk ept
Ġfr idge
Ġro uter
Ġj o
ĠG e
Ġex erc
Ġfan cy
Ġcondition ing
Ġheart s
Ġstar s
ns on
Ġtor t
Ġcalo ries
itr us
Ġsim ilar
Ġjew el
ĠMex ican
C ola
H alf
e nd
m en
Ġt ick
Ġin fo
ab b
Ġth read
ont rol
Ġk ernel
ra d
Ġso y
Ġcomp le
ind er
Ġro se
Ġhe alth
Ġli kely
Ġdis hes
ĠI nd
Ġen ergy
Ġcand ies
Ġdollar s
Ġstick ing
Ġdecor ation
Ġbur ner
Ġant i
Ġham burger
E T
P ink
S c
W hat
h and
l it
r ain
w as
Ġp r
on a
ro fo
Ġsh ade
Ġst op
il led
Ġcan e
ĠC ap
Ġbrown ie
Ġde w
pp ed
Ġpro cess
ĠF r
ang o
Ġcook er
struct ions
Ġtin y
ĠSt ates
Ġdial s
ello gg
Ġmuff in
Ġpine apple
Ġfly er
Ġcalcula tor
rofo am
T I
T ER
c ing
g in
k en
v et
Ġa id
Ġb ite
Ġb ake
Ġc ub
Ġc alendar
he ad
Ġh aving
ow er
st ick
ir k
Ġup right
ĠS N
Ġpo tted
Ġdev ices
Ġ1 6
Ġdrink s
Ġbright ly
Ġcon sole
Ġall ergy
Ġdraw n
Ġdraw er
Ġwhe at
Ġreflect ing
ĠJo e
Ġdepic ted
Ġkid ney
etch up
Ġexerc ise
m ium
o le
r up
Ġa way
Ġc age
Ġh azelnut
Ġla mb
lu tion
Ġst ation
Ġblue berry
ĠS am
Ġlabel ing
ill er
Ġob sc
ĠN estle
Ġsqu ee
Ġseason ed
ific ation
Ġpoin ting
Look s
Ġlean ing
ĠArab ic
Ġtun a
Ġunidentif iable
Ġcapsu les
i lad
m ber
o f
t z
u str
v i
Ġa le
Ġb lu
Ġp up
Ġp iano
Ġbo ld
ed dy
Ġin se
as ed
Ġth an
Ġst ating
ra ct
Ġe asy
Ġdo c
ĠB en
Ġsa y
Ġmo de
Ġapp les
Ġopen ing
ĠL ED
ĠK ing
Ġgar b
Ġdish was
sc ription
Ġbir th
ala n
po se
Ġstart up
aff e
Ġshop ping
ĠUP C
Ġcu tting
ĠBu tter
Ġfigur ine
Ġhall way
Cor ner
b ag
b read
i k
t ched
w an
Ġa mo
Ġs ong
Ġla ce
id ing
Ġst ory
Ġk h
Ġor nam
Ġup hol
bo ttle
Ġfood s
Ġso ur
Ġsm ok
Ġdo uble
Ġsp ark
co a
ry st
cola te
Ġser ies
Ġcord ed
Ġmin t
Ġcable s
isc uit
ĠDi et
ĠSo up
Ġcapture d
Ġinstal la
Cle ar
Ġuphol ster
i ft
k ins
p ut
Ġw ired
Ġf ile
ar p
al ity
Ġm ale
om es
et h
Ġre ar
ĠC LOSE
ĠS ony
Ġdes sert
ĠB L
pp ers
co nd
ĠF OR
Ġstick s
Ġac cess
Ġsy rup
Ġcirc les
Ġ4 0
Ġbuild ings
Ġpeanut s
ai red
Ġcol la
ĠJoh nson
Ġpul led
Ġdist ance
Ġpos ition
Ġinse ct
B ag
C ontainer
U P
m ine
u ced
Ġc itrus
Ġm iss
Ġm ail
Ġla min
Ġk etchup
am ed
Ġlo ading
ĠP h
ĠP re
Ġsp ots
Ġbook let
Ġapp lic
ĠG old
ĠK irk
Ġ1 4
Ġtan k
Ġad j
Ġqu ar
Ġmeat loaf
Ġser vice
Ġfold er
Ġpain t
Ġpepper oni
Ġroll s
Ġprep ar
ĠAmer ica
Ġsidew alk
ĠĠ ĠĠ
Ġ201 2
ĠJoh n
Ġcel ery
asp berry
Ġinstalla tion
L abel
P urple
U N
Y ou
g ne
i ant
i ving
Ġt ake
Ġt eddy
Ġb in
Ġf ast
Ġd ust
lo gy
Ġwh is
Ġn ail
Ġle ash
Ġbr ass
Ġsmall er
ĠA s
ĠK ellogg
Ġspe akers
Ġhouse hold
Ġposs ible
Ġdiet ary
Ġcross ed
AP SH
Ġtor so
Ġpump kin
Ġpor ch
Ġstat ue
ĠSa uce
Ġansw ers
ĠBO X
Ġvolu me
APSH OT
n ers
Ġ es
in z
Ġs lo
Ġm ap
ĠS pe
Ġcolo gne
Ġsp ir
ĠF ar
ĠW IT
Ġpe ppers
ment s
Ġjar s
Ġliqu or
Ġchocola tes
Ġmar oon
Ġinst all
Ġsoft ware
ĠChe ese
Ġrecor d
Look ing
ĠWIT H
F our
I S
L ight
l la
s es
Ġt ro
Ġb est
Ġw ild
le en
is ine
ic ally
el on
Ġre t
Ġn et
ap e
ch er
ad ed
Ġcomp let
ĠB R
ĠB ro
Ġde ck
Ġsp ring
Ġcar amel
Ġcolor ing
itche d
ĠN e
Ġ1 1
Ġ1 5
Ġsto ck
Ġtr ain
Ġkn e
ĠV e
Ġcr is
Ġz oomed
ĠMar sh
Ġadvert ising
orm el
ĠSe ason
Ġ9 0
Ġic ons
Ġmeas uring
Ġsne aker
Ġem ble
Ġherb al
Ġcomplet ely
b ow
l s
m ark
t ray
Ġb ell
Ġs la
Ġc ity
er ries
Ġf irst
ur ity
and s
us hed
Ġsc rew
ip t
se tte
ĠT im
Ġsl ices
Ġflower ed
ud ge
Ġshap es
ail y
Ġtak es
Ġoun ces
cle ar
val ia
ĠCho colate
ills bury
Ġribb on
Ġash tray
I R
M P
a is
m ale
p icture
v o
Ġa qu
it a
ro x
Ġd ash
lo e
el ve
st ial
Ġst air
ĠC la
Ġup on
Ġse ated
Ġr ain
Ġr im
Ġro ot
ĠB rit
ĠM ix
Ġwall paper
ĠH ormel
Ġme m
ĠL as
Ġ1 9
Ġfe male
ĠE l
Ġtr ack
ĠV alley
Ġshel ving
Ġtow ards
Ġthem ed
ĠBe tty
LAC K
yard ee
Ġproble ms
Ġbeaut y
Ġdet ails
OL D
Ġbutterf ly
Ġassort ed
ĠQu aker
ĠSch wan
ĠCrock er
Mult iple
Ġbirth day
A id
C orm
Ġw a
er t
Ġp ages
Ġco vers
Ġg ener
Ġre se
ood s
ir d
ĠC ol
ĠC lassic
ĠC ONT
Ġv ent
Ġy ear
ĠT r
Ġbu g
Ġpo ds
pla stic
Ġdi ag
ĠF OOD
Ġblanket s
Ġset s
ĠV er
Ġcr umb
Ġspe ed
In structions
Ġcond im
app y
Ġpop ular
Ġgo ur
Ġinclu des
Ġcoup on
Ġsand al
Ġhorizont ally
Ġreg ular
Ġpin to
anas onic
Ġadd ress
Ġcran berry
Ġtick et
Ġamo unt
leen ex
Ġemble m
Corm ick
G ray
N C
s mall
u ally
Ġw ill
nd ing
an ical
el la
Ġn amed
ap ter
Ġback pack
ĠC reek
Ġse cond
Ġfr ag
ĠT O
ĠP illsbury
ak ed
ĠM an
ĠD o
Ġdark er
Ġapp s
Ġpart s
ĠL CD
ĠI MAGE
ĠN atural
Ġra men
Ġblo od
Ġball s
Ġwork s
Ġtra ditional
ĠSm art
E LL
f ess
t ies
Ġ row
Ġb al
he ld
lo ck
Ġm ain
Ġth row
ap top
ĠS he
Ġsp icy
ĠF resh
ĠN o
Ġgr ill
Ġfo am
Ġhang s
Ġqu ality
Bo ttom
ash ion
Ġblur red
Ġmus ical
Ġdecor ations
Ġlemon ade
Ġgu ide
ĠTe a
Ġminut es
Ġben ch
Ġmiss ing
O range
P aper
w ash
in ation
Ġb ene
Ġc ast
la it
Ġco w
Ġh ood
Ġre s
Ġre qu
lu lar
op lait
Ġe ight
Ġso lution
ĠT esco
ĠB lend
Ġsa le
ĠD is
Ġout line
Ġpre tz
ari ous
Ġnot es
Ġed ges
ĠCD s
AR D
iv ers
Ġind oor
Ġblo use
Ġpepper mint
Ġsw irl
ĠBe ans
ĠHe inz
Ġscr at
Ġslip pers
Ġmicro phone
Wood en
Ġjewel ry
Ġdoc ument
Ġbene ath
2 0
A D
E x
I G
f low
h ouse
Ġs at
Ġc lass
Ġw ide
Ġf amily
ar a
ap an
ch ilad
Ġle ns
Ġfro st
ang es
ib er
ĠG iant
