{"<pad>":0,"<start>":1,"<end>":2,"<unk>":3,"!":4,"\"":5,"#":6,"$":7,"%":8,"&":9,"'":10,"(":11,")":12,"*":13,"+":14,",":15,"-":16,".":17,"/":18,"0":19,"1":20,"2":21,"3":22,"4":23,"5":24,"6":25,"7":26,"8":27,"9":28,":":29,";":30,"<":31,"=":32,">":33,"?":34,"@":35,"A":36,"B":37,"C":38,"D":39,"E":40,"F":41,"G":42,"H":43,"I":44,"J":45,"K":46,"L":47,"M":48,"N":49,"O":50,"P":51,"Q":52,"R":53,"S":54,"T":55,"U":56,"V":57,"W":58,"X":59,"Y":60,"Z":61,"[":62,"\\":63,"]":64,"^":65,"_":66,"`":67,"a":68,"b":69,"c":70,"d":71,"e":72,"f":73,"g":74,"h":75,"i":76,"j":77,"k":78,"l":79,"m":80,"n":81,"o":82,"p":83,"q":84,"r":85,"s":86,"t":87,"u":88,"v":89,"w":90,"x":91,"y":92,"z":93,"{":94,"|":95,"}":96,"~":97,"¡":98,"¢":99,"£":100,"¤":101,"¥":102,"¦":103,"§":104,"¨":105,"©":106,"ª":107,"«":108,"¬":109,"®":110,"¯":111,"°":112,"±":113,"²":114,"³":115,"´":116,"µ":117,"¶":118,"·":119,"¸":120,"¹":121,"º":122,"»":123,"¼":124,"½":125,"¾":126,"¿":127,"À":128,"Á":129,"Â":130,"Ã":131,"Ä":132,"Å":133,"Æ":134,"Ç":135,"È":136,"É":137,"Ê":138,"Ë":139,"Ì":140,"Í":141,"Î":142,"Ï":143,"Ð":144,"Ñ":145,"Ò":146,"Ó":147,"Ô":148,"Õ":149,"Ö":150,"×":151,"Ø":152,"Ù":153,"Ú":154,"Û":155,"Ü":156,"Ý":157,"Þ":158,"ß":159,"à":160,"á":161,"â":162,"ã":163,"ä":164,"å":165,"æ":166,"ç":167,"è":168,"é":169,"ê":170,"ë":171,"ì":172,"í":173,"î":174,"ï":175,"ð":176,"ñ":177,"ò":178,"ó":179,"ô":180,"õ":181,"ö":182,"÷":183,"ø":184,"ù":185,"ú":186,"û":187,"ü":188,"ý":189,"þ":190,"ÿ":191,"Ā":192,"ā":193,"Ă":194,"ă":195,"Ą":196,"ą":197,"Ć":198,"ć":199,"Ĉ":200,"ĉ":201,"Ċ":202,"ċ":203,"Č":204,"č":205,"Ď":206,"ď":207,"Đ":208,"đ":209,"Ē":210,"ē":211,"Ĕ":212,"ĕ":213,"Ė":214,"ė":215,"Ę":216,"ę":217,"Ě":218,"ě":219,"Ĝ":220,"ĝ":221,"Ğ":222,"ğ":223,"Ġ":224,"ġ":225,"Ģ":226,"ģ":227,"Ĥ":228,"ĥ":229,"Ħ":230,"ħ":231,"Ĩ":232,"ĩ":233,"Ī":234,"ī":235,"Ĭ":236,"ĭ":237,"Į":238,"į":239,"İ":240,"ı":241,"Ĳ":242,"ĳ":243,"Ĵ":244,"ĵ":245,"Ķ":246,"ķ":247,"ĸ":248,"Ĺ":249,"ĺ":250,"Ļ":251,"ļ":252,"Ľ":253,"ľ":254,"Ŀ":255,"ŀ":256,"Ł":257,"ł":258,"Ń":259,"Ġa":260,"Ġo":261,"in":262,"Ġt":263,"it":264,"Ġb":265,"Ġs":266,"Ġc":267,"Ġw":268,"Ġof":269,"er":270,"Ġp":271,"re":272,"le":273,"nd":274,"he":275,"ing":276,"Ġon":277,"la":278,"on":279,"Ġf":280,"ith":281,"Ġwith":282,"is":283,"ck":284,"en":285,"Ġthe":286,"Ġand":287,"ar":288,"an":289,"at":290,"ro":291,"Ġd":292,"ic":293,"lo":294,"Ġco":295,"Ġh":296,"Ġbo":297,"Ġis":298,"ed":299,"Ġin":300,"al":301,"Ġm":302,"Ġto":303,"or":304,"ite":305,"Ġwh":306,"tt":307,"Ġg":308,"es":309,"ack":310,"ab":311,"ag":312,"Ġwhite":313,"om":314,"el":315,"as":316,"Ġla":317,"oo":318,"ter":319,"Ġth":320,"Ġsh":321,"et":322,"able":323,"Ġre":324,"ur":325,"ont":326,"Ġit":327,"Ġn":328,"ood":329,"and":330,"Ġbla":331,"Ġbott":332,"ow":333,"ld":334,"st":335,"ce":336,"Ġtable":337,"ig":338,"un":339,"id":340,"ion":341,"lu":342,"age":343,"Ġbottle":344,"up":345,"ir":346,"Ġblack":347,"reen":348,"Ġl":349,"ers":350,"Ġthat":351,"ct":352,"Ġst":353,"ome":354,"il":355,"Ġcan":356,"ain":357,"Ġsit":358,"ap":359,"Ġbox":360,"Ġbe":361,"Ġtop":362,"Ġpack":363,"lue":364,"ting":365,"all":366,"mp":367,"ver":368,"Ġblue":369,"old":370,"ot":371,"ut":372,"ure":373,"Ġpla":374,"Ġsitting":375,"Ġcont":376,"'s":377,"Ġk":378,"low":379,"Ġback":380,"ĠC":381,"ex":382,"und":383,"Ġred":384,"Ġshow":385,"one":386,"ra":387,"Ġch":388,"ard":389,"igh":390,"Ġsome":391,"us":392,"Ġor":393,"ie":394,"Ġan":395,"ide":396,"Ġhold":397,"Ġwood":398,"The":399,"ch":400,"Ġcontain":401,"ight":402,"ture":403,"ad":404,"Ġle":405,"Ġhand":406,"erson":407,"Ġcoun":408,"ent":409,"ss":410,"ok":411,"ext":412,"Ġclo":413,"Ġcounter":414,"row":415,"am":416,"Ġv":417,"Ġsc":418,"round":419,"Ġperson":420,"Ġgreen":421,"op":422,"bel":423,"Ġholding":424,"Ġpackage":425,"Ġy":426,"Ġup":427,"icture":428,"Ġfor":429,"Ġhas":430,"ying":431,"im":432,"ear":433,"Ġse":434,"ace":435,"Ġfr":436,"th":437,"ge":438,"ĠS":439,"Ġe":440,"ip":441,"Ġlabel":442,"ve":443,"bo":444,"ff":445,"Ġfood":446,"Ġsur":447,"red":448,"Ġcolo":449,"Ġso":450,"ric":451,"Ġfro":452,"Ġpicture":453,"Ġsurf":454,"Ġsurface":455,"Ġfront":456,"Ġscreen":457,"art":458,"Ġwooden":459,"Ġcomp":460,"stic":461,"ink":462,"rown":463,"Ġbr":464,"Ġlo":465,"ellow":466,"Ġsm":467,"Ġdo":468,"se":469,"uter":470,"ind":471,"Ġr":472,"Ġyellow":473,"Ġplastic":474,"Ġbrown":475,"ice":476,"Ġcontainer":477,"Ġro":478,"ĠT":479,"um":480,"Ġdes":481,"ine":482,"rit":483,"ground":484,"Ġcomputer":485,"ĠB":486,"irt":487,"Ġshowing":488,"An":489,"air":490,"ee":491,"Ġbu":492,"Ġj":493,"Ġsmall":494,"Ġde":495,"Ġbag":496,"Ġflo":497,"Ġbackground":498,"ĠP":499,"ark":500,"Ġhe":501,"ey":502,"ick":503,"Ġare":504,"ak":505,"pp":506,"Ġsp":507,"Ġli":508,"led":509,"Ġpie":510,"ĠM":511,"aper":512,"qu":513,"ĠA":514,"top":515,"abric":516,"Ġsa":517,"Ġdis":518,"Ġfabric":519,"Ġnext":520,"Ġph":521,"uct":522,"ort":523,"Ġlaying":524,"Ġpro":525,"che":526,"Ġpaper":527,"Ġside":528,"ĠD":529,"ul":530,"co":531,"Ġlap":532,"Ġbrand":533,"Ġfrom":534,"Ġfloor":535,"Ġpiece":536,"Ġshirt":537,"image":538,"board":539,"Ġbutt":540,"Ġkey":541,"ation":542,"ner":543,"Ġwall":544,"Ġby":545,"ly":546,"Ġpo":547,"wo":548,"Ġcar":549,"ffee":550,"Ġimage":551,"Ġcolor":552,"Ġlight":553,"lass":554,"Ġcor":555,"ray":556,"ater":557,"ug":558,"Ġmo":559,"ry":560,"ect":561,"Ġte":562,"Ġfla":563,"Ġdark":564,"side":565,"Ġbook":566,"Ġdesk":567,"ill":568,"Ġcoffee":569,"Ġtext":570,"pla":571,"ĠH":572,"Ġdi":573,"Ġpink":574,"Ġclose":575,"ft":576,"te":577,"Ġroom":578,"lar":579,"ange":580,"Ġout":581,"Ġbutton":582,"ys":583,"Ġsomeone":584,"Ġcolored":585,"lect":586,"Ġop":587,"rey":588,"ĠF":589,"ilver":590,"ple":591,"ere":592,"iz":593,"ant":594,"Ġbed":595,"Ġme":596,"Ġwear":597,"Ġcle":598,"Ġal":599,"ang":600,"Ġob":601,"rip":602,"ib":603,"Ġcard":604,"ath":605,"Ġglass":606,"Ġapp":607,"Ġcloth":608,"Ġdispla":609,"ans":610,"ke":611,"Ġshe":612,"ase":613,"Ġsilver":614,"ions":615,"ted":616,"ject":617,"Ġwearing":618,"Ġgrey":619,"Ġpart":620,"own":621,"rap":622,"Ġkeyboard":623,"item":624,"Ġitem":625,"Ġnut":626,"zen":627,"ree":628,"Ġorange":629,"duct":630,"itche":631,"Ġman":632,"Ġobject":633,"ĠG":634,"Ġopen":635,"ĠW":636,"rition":637,"Ġat":638,"Ġpur":639,"Ġcover":640,"Ġproduct":641,"Ġshown":642,"ile":643,"Ġwor":644,"ous":645,"ac":646,"Ġun":647,"sh":648,"ial":649,"ĠR":650,"ell":651,"Ġsee":652,"itchen":653,"ĠL":654,"Ġwrit":655,"Ġdev":656,"ĠI":657,"ach":658,"Ġcup":659,"ign":660,"Ġdog":661,"indow":662,"ĠO":663,"Ġkitchen":664,"Ġfrozen":665,"icken":666,"Ġlar":667,"Ġheld":668,"hing":669,"Ġnutrition":670,"ĠK":671,"Ġphone":672,"pe":673,"ub":674,"Some":675,"Ġdevice":676,"ast":677,"Ġlarge":678,"Ġpe":679,"Ġsits":680,"Ġche":681,"ix":682,"Ġcre":683,"Ġlett":684,"Ġtwo":685,"Ġbar":686,"ced":687,"ies":688,"the":689,"ato":690,"Ġlook":691,"Ġdr":692,"Ġdown":693,"Ġchair":694,"Ġ\"":695,"ay":696,"Ġelect":697,"ears":698,"oto":699,"Ġlaptop":700,"are":701,"ĠN":702,"Ġsoup":703,"ther":704,"ment":705,"Ġpurple":706,"ist":707,"rin":708,"ote":709,"Ġstand":710,"Ġgray":711,"pet":712,"Ġright":713,"str":714,"Ġother":715,"ned":716,"ress":717,"tion":718,"Ġcarpet":719,"ber":720,"rol":721,"Ġstrip":722,"Ġbeing":723,"Ġwindow":724,"Ġflow":725,"les":726,"Ġchicken":727,"ich":728,"Ġgr":729,"Ġlike":730,"Ġty":731,"Ġrest":732,"Ġone":733,"Ġ1":734,"ds":735,"Ġabo":736,"Ġphoto":737,"Ġfo":738,"Ġpackag":739,"nk":740,"Ġclear":741,"Ġcream":742,"ĠTV":743,"Ġpat":744,"iew":745,"some":746,"Ġplaced":747,"Ġcook":748,"Ġus":749,"act":750,"Ġcontaining":751,"Ġprin":752,"amp":753,"ong":754,"Ġdin":755,"ol":756,"Ġblank":757,"Ġcontrol":758,"Ġ2":759,"Ġsort":760,"Ġmon":761,"we":762,"Ġfe":763,"Ġtheir":764,"Ġsto":765,"Ġoff":766,"onic":767,"ty":768,"mo":769,"for":770,"Ġover":771,"Ġview":772,"ish":773,"itor":774,"Ġbuttons":775,"Ġwater":776,"Ġmed":777,"ave":778,"Ġwhich":779,"Ġtype":780,"Ġcap":781,"Ġyo":782,"Ġjar":783,"Ġmonitor":784,"Ġread":785,"Ġas":786,"ĠCh":787,"ade":788,"Ġdoor":789,"ive":790,"Ġnear":791,"Ġleft":792,"Ġsays":793,"ronic":794,"Ġcorner":795,"ts":796,"Ġits":797,"Ġinside":798,"Ġdisplay":799,"Ġar":800,"Ġhang":801,"struct":802,"hite":803,"ren":804,"Ġmix":805,"Ġlying":806,"me":807,"Ġnum":808,"uce":809,"uch":810,"ents":811,"ĠE":812,"omet":813,"av":814,"Ġshows":815,"Ġelectronic":816,"Ġcase":817,"Ġpot":818,"Ġflav":819,"room":820,"ire":821,"ph":822,"Ġrem":823,"Ġcur":824,"dy":825,"Ġmet":826,"Ġgold":827,"de":828,"ate":829,"Ġbottom":830,"Ġleg":831,"omething":832,"Ġtr":833,"Ġdinner":834,"ult":835,"Ġpatter":836,"Ġblanket":837,"ess":838,"ian":839,"ten":840,"Ġmic":841,"Ġkn":842,"ĠJ":843,"Ġset":844,"ese":845,"Someone":846,"her":847,"Ġcho":848,"if":849,"Ġne":850,"form":851,"Ġver":852,"Ġinstruct":853,"Ġsauce":854,"Ġremote":855,"Ġsod":856,"Ġcountertop":857,"Ġsomething":858,"Ġliqu":859,"Ġpackaging":860,"acts":861,"Ġpair":862,"ĠV":863,"Ġpre":864,"Ġbeans":865,"Ġsho":866,"Ġstanding":867,"Ġmedic":868,"ame":869,"cola":870,"Ġmicrow":871,"Ġsheet":872,"Ġpacket":873,"formation":874,"ving":875,"Ġmetal":876,"go":877,"Ġfacts":878,"est":879,"Ġinformation":880,"Ġtur":881,"tain":882,"Ġliquid":883,"Ġsoda":884,"llar":885,"Ġletter":886,"ook":887,"Ġshel":888,"uff":889,"ush":890,"Ġdesign":891,"ible":892,"ake":893,"alf":894,"Ġdrink":895,"Ġinstructions":896,"ari":897,"lack":898,"Ġwom":899,"to":900,"get":901,"Ġtan":902,"Ġtin":903,"Ġthis":904,"Ġwhat":905,"ull":906,"Ġitems":907,"ild":908,"Ġwriting":909,"Picture":910,"Ġwas":911,"ne":912,"per":913,"Ġswe":914,"Ġwritten":915,"mpty":916,"raw":917,"Ġtele":918,"Ġlooks":919,"Ġcr":920,"Ġmeal":921,"Ġtom":922,"Ġflat":923,"redi":924,"ĠCo":925,"Ġnot":926,"Ġlogo":927,"Ġtomato":928,"Ġtea":929,"Ġchocola":930,"Two":931,"Ġve":932,"ĠU":933,"Ġsk":934,"Ġdress":935,"ened":936,"VD":937,"cor":938,"read":939,"ue":940,"ven":941,"ings":942,"uit":943,"Ġfra":944,"Ġhanging":945,"Ġag":946,"Ġvis":947,"Ġbl":948,"ingredi":949,"ular":950,"hind":951,"Ġmach":952,"Ġingredi":953,"Ġad":954,"io":955,"Ġbehind":956,"Ġempty":957,"Ġbill":958,"let":959,"Ġhalf":960,"Ġbright":961,"Ġwrap":962,"Ġmult":963,"ĠDVD":964,"rees":965,"ature":966,"Ġmachine":967,"Ġflowers":968,"ital":969,"Ġmade":970,"ime":971,"Ġstove":972,"Ġagain":973,"ped":974,"Ġresting":975,"ilk":976,"White":977,"Ġju":978,"Ġagainst":979,"Ġdiff":980,"Ġchocolate":981,"Ġlid":982,"Ġvari":983,"Ġje":984,"ouse":985,"Ġappears":986,"Ġkind":987,"Ġspe":988,"Ġnutritional":989,"Ġabout":990,"Ġed":991,"erent":992,"Ġcheese":993,"Ġvery":994,"ep":995,"Ġen":996,"Ġwine":997,"Ġlettering":998,"vis":999,"Ġpattern":1000,"Ġwords":1001,"most":1002,"Ġther":1003,"Ġpant":1004,"Ġbow":1005,"veral":1006,"ather":1007,"Ġqu":1008,"Ġdifferent":1009,"Ġtile":1010,"Ġtow":1011,"use":1012,"Ġmeat":1013,"Ġcand":1014,"Ġpage":1015,"Ġdig":1016,"Ġpen":1017,"Ġlotion":1018,"Pictured":1019,"opened":1020,"Ġtub":1021,"Ġsl":1022,"Ġmicrowave":1023,"Ġi":1024,"Ġhair":1025,"Ġsn":1026,"ips":1027,"gg":1028,"Ġcon":1029,"Ġcouch":1030,"ĠCD":1031,"Ġcontains":1032,"vision":1033,"Ġingredients":1034,"aker":1035,"Ġused":1036,"ally":1037,"Bo":1038,"der":1039,"ass":1040,"Ġstriped":1041,"ble":1042,"cy":1043,"ef":1044,"ated":1045,"00":1046,"Ġwoman":1047,"Ġdollar":1048,"so":1049,"Ġprinted":1050,"Ġra":1051,"ition":1052,"Ġstick":1053,"be":1054,"Ġflower":1055,"Ġround":1056,"Ġdigital":1057,"ored":1058,"Ġfull":1059,"Ġport":1060,"ugh":1061,"aterial":1062,"Ġabove":1063,"Ġpan":1064,"Ġletters":1065,"nt":1066,"Ġvarious":1067,"Ġhead":1068,"Ġunopened":1069,"Ġbowl":1070,"dle":1071,"Ġmaterial":1072,"Ġtelevision":1073,"Ġund":1074,"ger":1075,"Ġfil":1076,"Ġdisplaying":1077,"Ġvisible":1078,"Ġpants":1079,"Ġclean":1080,"Ġex":1081,"Ġrug":1082,"Ġbeer":1083,"Ġcam":1084,"ud":1085,"ll":1086,"Ġsqu":1087,"os":1088,"Ġpotato":1089,"min":1090,"Ġbath":1091,"Ġpast":1092,"ige":1093,"ash":1094,"Ġflavored":1095,"Ġac":1096,"af":1097,"Ġfore":1098,"Ġsing":1099,"Ġmar":1100,"Black":1101,"mostat":1102,"In":1103,"oot":1104,"Ġall":1105,"Ġturned":1106,"Ġcell":1107,"ross":1108,"Ġlooking":1109,"Ġground":1110,"Ġbeef":1111,"ason":1112,"ched":1113,"Ġmedicine":1114,"Ġmilk":1115,"pper":1116,"Ġcal":1117,"atur":1118,"Ġleather":1119,"bell":1120,"Ġveget":1121,"rist":1122,"Ġste":1123,"Part":1124,"Ġpow":1125,"Ġthere":1126,"Ġclothing":1127,"ity":1128,"Ġshelf":1129,"Ġunder":1130,"ob":1131,"Ġfan":1132,"Ġfing":1133,"Ġbody":1134,"Ġcardboard":1135,"Ġyou":1136,"Ġlit":1137,"Ġbutter":1138,"phone":1139,"ding":1140,"Ġthermostat":1141,"Ġcond":1142,"ral":1143,"Ġsy":1144,"ampbell":1145,"Ġnumber":1146,"ia":1147,"Ġcart":1148,"Ġhouse":1149,"rice":1150,"Ġcat":1151,"ces":1152,"era":1153,"Ġchar":1154,"Ġsup":1155,"Ġchips":1156,"Ġsingle":1157,"sed":1158,"Ġseen":1159,"Ġwe":1160,"Ġ3":1161,"Ġvegetable":1162,"Ġthem":1163,"Ġlong":1164,"Ġshort":1165,"Ġframe":1166,"Ġcamera":1167,"Ġbut":1168,"Ġser":1169,"Ġface":1170,"Ġcom":1171,"Ġmouse":1172,"Ġbeige":1173,"Ġfold":1174,"Ġold":1175,"Ġcord":1176,"Ġedge":1177,"ual":1178,"Ġpasta":1179,"illow":1180,"Ġjuice":1181,"ĠCampbell":1182,"Ġgran":1183,"Ġcurren":1184,"LE":1185,"az":1186,"Ġblur":1187,"IN":1188,"ning":1189,"iss":1190,"Ġmid":1191,"Ġmin":1192,"irc":1193,"Ġkeys":1194,"Ġjeans":1195,"ER":1196,"Ġcab":1197,"Ġfoot":1198,"Ġpain":1199,"Ġno":1200,"ĠSp":1201,"ale":1202,"bers":1203,"Ġlin":1204,"AR":1205,"inet":1206,"Ġtube":1207,"ust":1208,"Ġseveral":1209,"ĠSt":1210,"Ġdisplayed":1211,"Ġz":1212,"iling":1213,"ED":1214,"Ġwire":1215,"Ġpillow":1216,"unch":1217,"Ġshap":1218,"Ġsiz":1219,"Ġcirc":1220,"ca":1221,"Ġplu":1222,"Ġhis":1223,"iv":1224,"ool":1225,"Ġmiddle":1226,"mon":1227,"Ġref":1228,"app":1229,"Ġcabinet":1230,"Ġsle":1231,"Ġpill":1232,"Ġsink":1233,"Ġflavor":1234,"Ġfloral":1235,"izz":1236,"cks":1237,"Ġgame":1238,"Ġoutside":1239,"enter":1240,"ating":1241,"Ġwho":1242,"Ġarm":1243,"Ġlegs":1244,"oon":1245,"Ġsun":1246,"Ġseason":1247,"ĠiP":1248,"ical":1249,"Ġnumbers":1250,"Ġper":1251,"Ġcorn":1252,"ered":1253,"Ġdesc":1254,"Ġopened":1255,"Ġapple":1256,"ail":1257,"Ġclock":1258,"Ġmat":1259,"clo":1260,"od":1261,"Ġtowel":1262,"Ġaround":1263,"Ġtree":1264,"Ġcooking":1265,"Ġpop":1266,"ins":1267,"Ġsquare":1268,"way":1269,"Ġliving":1270,"shirt":1271,"Ġoven":1272,"Ġce":1273,"ise":1274,"Ġmen":1275,"code":1276,"Ġcalled":1277,"Here":1278,"Pack":1279,"Ġcenter":1280,"ereal":1281,"Ġ4":1282,"ance":1283,"Ġhard":1284,"izza":1285,"ful":1286,"ium":1287,"ng":1288,"rect":1289,"Ġmug":1290,"Ġplate":1291,"oni":1292,"Ġind":1293,"Ġsty":1294,"Ġstripes":1295,"ampoo":1296,"Ġblo":1297,"Ġcereal":1298,"Ġthree":1299,"Ġhot":1300,"oney":1301,"Ġtoy":1302,"Ġsnack":1303,"Ġtrees":1304,"Ġshoe":1305,"Ġshin":1306,"Ġbarcode":1307,"mer":1308,"Ġdraw":1309,"Ġart":1310,"ball":1311,"Ġmus":1312,"Ġfilled":1313,"Ġarea":1314,"Ġdirect":1315,"Ġbathroom":1316,"Ġfur":1317,"other":1318,"Ġword":1319,"Ġsign":1320,"Ġbottles":1321,"Ġdial":1322,"ages":1323,"Ġshampoo":1324,"Clo":1325,"em":1326,"Ġatt":1327,"Ġsoap":1328,"Ġpizza":1329,"Ġportion":1330,"Ġ5":1331,"Ġspray":1332,"Ġholds":1333,"raph":1334,"Ġelectric":1335,"Ġtemp":1336,"Ġfruit":1337,"Ġpanel":1338,"Ġtime":1339,"Ġstuff":1340,"ĠOF":1341,"uc":1342,"Ġinto":1343,"alk":1344,"Ġdecor":1345,"Ġlamp":1346,"iple":1347,"Ġblurry":1348,"atch":1349,"ices":1350,"Ġanother":1351,"Ġbooks":1352,"Ġlow":1353,"cket":1354,"reat":1355,"Ġpartial":1356,"Ġoffice":1357,"Ġsky":1358,"Ġcandy":1359,"Ġsal":1360,"Ġnote":1361,"Ġplay":1362,"Ġcovered":1363,"ms":1364,"Ġmany":1365,"illa":1366,"Ġfac":1367,"MA":1368,"Ġinst":1369,"ND":1370,"Ġposs":1371,"Ġ7":1372,"Ġgar":1373,"li":1374,"Ġrect":1375,"berry":1376,"Ġrectang":1377,"Ġtag":1378,"Ġtak":1379,"Ġmess":1380,"ump":1381,"ttle":1382,"Ġgood":1383,"Ġceiling":1384,"Th":1385,"Ġbro":1386,"hed":1387,"aves":1388,"appears":1389,"erature":1390,"Ġmag":1391,"ially":1392,"ery":1393,"Ġpepper":1394,"ones":1395,"Ġshoes":1396,"Ġsweater":1397,"Ġnood":1398,"Ġchild":1399,"OT":1400,"gan":1401,"ary":1402,"Ġhome":1403,"ser":1404,"tch":1405,"Ġrice":1406,"ork":1407,"Ġknob":1408,"Ġcondition":1409,"ached":1410,"iced":1411,"tting":1412,"Ġneck":1413,"Ġtemperature":1414,"untain":1415,"Ġcolorful":1416,"Ġend":1417,"Ġshorts":1418,"Close":1419,"ping":1420,"rink":1421,"Ġhor":1422,"Ġinc":1423,"Ġplant":1424,"AC":1425,"Ġcans":1426,"Ġvegetables":1427,"Ġgranite":1428,"ung":1429,"Ġalong":1430,"si":1431,"Ġbas":1432,"Ġgo":1433,"Ġsw":1434,"Ġleaves":1435,"ibly":1436,"Ġfour":1437,"Ġstyle":1438,"Ġmov":1439,"nit":1440,"Ġstre":1441,"ĠON":1442,"Ġprint":1443,"Ġacross":1444,"Ġher":1445,"Blue":1446,"tle":1447,"ves":1448,"Ġhum":1449,"Ġlaid":1450,"ction":1451,"Ġfeet":1452,"Ġmusic":1453,"less":1454,"Ġattached":1455,"ied":1456,"out":1457,"Ġbever":1458,"Ġlemon":1459,"Can":1460,"book":1461,"ront":1462,"ster":1463,"uld":1464,"Ġpartially":1465,"someone":1466,"Ġbre":1467,"rough":1468,"Ġcanned":1469,"Ġsoft":1470,"Ġdish":1471,"lend":1472,"alue":1473,"urt":1474,"Ġclosed":1475,"Ġfree":1476,"Ġupside":1477,"Ġcolors":1478,"ots":1479,"Ġwindows":1480,"Ġ20":1481,"Ġseasoning":1482,"alm":1483,"Ġname":1484,"Ġcode":1485,"Ġair":1486,"Ġtit":1487,"Ġdeg":1488,"Ġstore":1489,"Ġfinger":1490,"Ġhave":1491,"Ġplace":1492,"ĠPep":1493,"ler":1494,"sp":1495,"Ġmultiple":1496,"ory":1497,"lumin":1498,"beled":1499,"sc":1500,"Ġwrapped":1501,"Ġdirections":1502,"AS":1503,"Ġban":1504,"Ġball":1505,"lic":1506,"ues":1507,"anut":1508,"Ġdate":1509,"Ġcurtain":1510,"Ġinclu":1511,"man":1512,"Ġdirt":1513,"Ġlabeled":1514,"Ġhandle":1515,"Ġbuild":1516,"ĠY":1517,"Ġmark":1518,"Ġthrough":1519,"Ġsweet":1520,"mb":1521,"Ġbes":1522,"Ġbeverage":1523,"bur":1524,"ator":1525,"Ġreads":1526,"Ġfolded":1527,"ĠPepsi":1528,"GE":1529,"mas":1530,"ĠChrist":1531,"Ġpatterned":1532,"Box":1533,"gurt":1534,"Ġpossibly":1535,"iled":1536,"Ġbur":1537,"Ġmost":1538,"Ġsea":1539,"plement":1540,"ring":1541,"Ġnew":1542,"Ġcurrency":1543,"Ġmovie":1544,"Ġam":1545,"Ġwell":1546,"aster":1547,"ideo":1548,"Ġdisc":1549,"Ġtomatoes":1550,"ĠUS":1551,"Ġsticker":1552,"Ġslee":1553,"Ġshiny":1554,"int":1555,"gn":1556,"lad":1557,"ely":1558,"Ġey":1559,"Ġrests":1560,"TE":1561,"Ġcd":1562,"Ġho":1563,"ushroom":1564,"yl":1565,"inal":1566,"Ġpark":1567,"Ġcoup":1568,"Ġstraw":1569,"Ġobjects":1570,"Ġuse":1571,"ola":1572,"erry":1573,"ican":1574,"Ġbeside":1575,"ew":1576,"gy":1577,"Ġbak":1578,"ror":1579,"App":1580,"ches":1581,"hone":1582,"Ġwrink":1583,"aby":1584,"ĠBe":1585,"Ġgrain":1586,"Ġsupplement":1587,"Ġsize":1588,"Ġhuman":1589,"Ġdegrees":1590,"Ġwork":1591,"Ġexp":1592,"Red":1593,"Ġtap":1594,"unk":1595,"stem":1596,"Ġyogurt":1597,"Ġfacing":1598,"Back":1599,"Ġcable":1600,"Ġwhe":1601,"Ġrectangular":1602,"uck":1603,"Ġplaying":1604,"Ġsmart":1605,"Ġready":1606,"ĠChristmas":1607,"Ġanim":1608,"Ġvideo":1609,"Ġcut":1610,"Ġdiet":1611,"Ġfew":1612,"luminum":1613,"Ġsand":1614,"Ġpeanut":1615,"cloth":1616,"Front":1617,"ON":1618,"Ġbig":1619,"atural":1620,"ved":1621,"Ġtex":1622,"irl":1623,"ĠBo":1624,"kn":1625,"Ġbase":1626,"tter":1627,"Ġheart":1628,"Ġmedication":1629,"anilla":1630,"Ġgi":1631,"ĠMar":1632,"Ġcarton":1633,"tcha":1634,"mall":1635,"ople":1636,"ription":1637,"Ġforeground":1638,"ING":1639,"key":1640,"Ġsub":1641,"alo":1642,"Ġshaped":1643,"med":1644,"Ġstack":1645,"Ġjack":1646,"ĠMo":1647,"Ġcheck":1648,"rench":1649,"Ġchairs":1650,"oor":1651,"zz":1652,"Ġeach":1653,"Ġpictures":1654,"Ġgrass":1655,"Ġphotog":1656,"white":1657,"Ġdesktop":1658,"Ġcookies":1659,"Ġsalt":1660,"Ġmay":1661,"umb":1662,"Ġpocket":1663,"ries":1664,"alth":1665,"Ġmac":1666,"Ġmushroom":1667,"Ġtoo":1668,"acter":1669,"Ġwashing":1670,"Ġmulti":1671,"Ġdirty":1672,"Ġtexture":1673,"Ġoun":1674,"Ġtw":1675,"Ġbaby":1676,"Ġwatch":1677,"ens":1678,"Ġpeople":1679,"Ġpotatoes":1680,"Ġlittle":1681,"Ġ&":1682,"Ġshot":1683,"ĠChe":1684,"Ġbread":1685,"tte":1686,"iginal":1687,"Ġboxes":1688,"Ġroll":1689,"Ġmarble":1690,"fo":1691,"Ġtra":1692,"ĠApp":1693,"Appears":1694,"ri":1695,"vert":1696,"thes":1697,"wn":1698,"Ġlot":1699,"ĠFrench":1700,"Ġsystem":1701,"rib":1702,"Ġsug":1703,"Ġtablecloth":1704,"Ġpackaged":1705,"Ġ6":1706,"Ġequ":1707,"Ġpieces":1708,"OR":1709,"itam":1710,"ence":1711,"Ġrun":1712,"itch":1713,"Ġcush":1714,"Ġpad":1715,"Ġprep":1716,"Ġrad":1717,"ĠiPhone":1718,"Ġconditioner":1719,"Ġbra":1720,"Ġfive":1721,"Ġshad":1722,"ident":1723,"Ġanimal":1724,"Ġreflect":1725,"Ġaluminum":1726,"tti":1727,"Ġpower":1728,"Package":1729,"ny":1730,"Ġhere":1731,"Ġboard":1732,"ilet":1733,"Ġwhole":1734,"Ġspeaker":1735,"Ġmagaz":1736,"Ġ/":1737,"Ġext":1738,"omp":1739,"lish":1740,"Ġwhile":1741,"igare":1742,"Ġdresser":1743,"Ġcleaner":1744,"Ġfish":1745,"Ġclothes":1746,"Ġroast":1747,"Ġdep":1748,"Ġfeatur":1749,"ĠJo":1750,"Ġfeaturing":1751,"eur":1752,"Ġbeen":1753,"Ġclou":1754,"indows":1755,"Pla":1756,"ka":1757,"resh":1758,"Ġfire":1759,"Ġlist":1760,"Ġbelow":1761,"Ġplan":1762,"Ġcaptcha":1763,"niture":1764,"Ġstain":1765,"Ġbars":1766,"Ġadvert":1767,"Ġtiss":1768,"Ġbir":1769,"Ġfurniture":1770,"lip":1771,"ula":1772,"any":1773,"icle":1774,"Ġstill":1775,"ĠIS":1776,"ays":1777,"Ġcigare":1778,"Ġlays":1779,"Ġstar":1780,"Ġyour":1781,"Ġwash":1782,"known":1783,"ala":1784,"Ġcake":1785,"Ġbedroom":1786,"Ġbuilding":1787,"Ġbunch":1788,"aghe":1789,"Ġline":1790,"ili":1791,"Ġalso":1792,"Ġunknown":1793,"Ġspice":1794,"MAGE":1795,"LL":1796,"lored":1797,"Ġgro":1798,"Ġegg":1799,"ĠAmer":1800,"kin":1801,"py":1802,"Bottle":1803,"ĠApple":1804,"eurig":1805,"hol":1806,"ling":1807,"lian":1808,"Ġice":1809,"Ġhow":1810,"Ġcircular":1811,"cup":1812,"cial":1813,"Ġcollar":1814,"Ġtoilet":1815,"Ġbranded":1816,"Ġreading":1817,"Ġwo":1818,"Ġpills":1819,"aghetti":1820,"Green":1821,"set":1822,"Ġden":1823,"Ġrec":1824,"ĠAr":1825,"izer":1826,"Ġmessage":1827,"ket":1828,"Ġapplian":1829,"Ġblind":1830,"Ġzip":1831,"Ġjacket":1832,"Ġpap":1833,"shot":1834,"Ġcrack":1835,"Ġsealed":1836,"Ġcott":1837,"ĠKeurig":1838,"Ġsugar":1839,"HE":1840,"Ġtiled":1841,"Ġwar":1842,"Ġgolden":1843,"Ġmicrowav":1844,"Ġskin":1845,"Ġfingers":1846,"Ġmagazine":1847,"Ġear":1848,"Ġradio":1849,"Se":1850,"fa":1851,"Ġent":1852,"Ġwrist":1853,"Ġpalm":1854,"ĠAND":1855,"Ġlines":1856,"Ġdescrib":1857,"Ġrunning":1858,"Ġdepic":1859,"Im":1860,"Ġ'":1861,"Ġbet":1862,"Ġplayer":1863,"\".":1864,"AN":1865,"ween":1866,"Ġbetween":1867,"Ġpowder":1868,"Ġcharacter":1869,"Ġcushion":1870,"Ġfig":1871,"atter":1872,"eep":1873,"ĠPo":1874,"ĠHe":1875,"cle":1876,"vel":1877,"Ġclu":1878,"Ġforeign":1879,"Ġincluding":1880,"St":1881,"rop":1882,"Ġring":1883,"Ġhigh":1884,"unt":1885,"Ġsetting":1886,"gged":1887,"Ġcouple":1888,"LAC":1889,"Ġ8":1890,"onut":1891,"Ġmake":1892,"Ġunit":1893,"Three":1894,"Hand":1895,"bs":1896,"aroni":1897,"ates":1898,"Ġsidew":1899,"ĠRo":1900,"Small":1901,"Ġplaid":1902,"Ġhands":1903,"ams":1904,"Ġ100":1905,"Ġmicrowavable":1906,"Image":1907,"ai":1908,"na":1909,"ĠThe":1910,"oth":1911,"ipe":1912,"Ġlies":1913,"ĠGreen":1914,"phones":1915,"wood":1916,"Ġcross":1917,"Ġnatural":1918,"Ġtablet":1919,"Ġsofa":1920,"ĠMac":1921,"Ġcloseup":1922,"ĠChicken":1923,"aur":1924,"Ġcola":1925,"Ġgel":1926,"Ġgra":1927,"Ġvanilla":1928,"ations":1929,"Ġbasket":1930,"ah":1931,"mbo":1932,"ĠPe":1933,"Ġ10":1934,"Ġ12":1935,"Ġtelephone":1936,"Ġhoriz":1937,"On":1938,"RE":1939,"line":1940,"iger":1941,"Ġkid":1942,"Ġseat":1943,"ĠWindows":1944,"ngu":1945,"mat":1946,"Ġil":1947,"Ġim":1948,"Ġcro":1949,"ons":1950,"Ġmath":1951,"Ġknit":1952,"ific":1953,"ĠMountain":1954,"ax":1955,"hes":1956,"Ġlangu":1957,"resso":1958,"Ġcurrent":1959,"Ġpainting":1960,"Ġonly":1961,"Ġdry":1962,"unted":1963,"Ġoriginal":1964,"Ġsurround":1965,"omputer":1966,"bu":1967,"neath":1968,"Ġunderneath":1969,"Ġcartoon":1970,"Ġsubst":1971,"Ġounce":1972,"AP":1973,"ley":1974,"land":1975,"Ġbags":1976,"Ġdescription":1977,"Ġinstant":1978,"Ġstreet":1979,"ĠĠ":1980,"ĠSh":1981,"Ġwomen":1982,"Ġtape":1983,"Ġhorizont":1984,"Ġtray":1985,"Ġtest":1986,"Ġcas":1987,"Ġflu":1988,"Ġlaund":1989,"Ġvitam":1990,"Ġsection":1991,"Ġgraph":1992,"aste":1993,"Ġspaghetti":1994,"ns":1995,"nam":1996,"ines":1997,"inger":1998,"Ġcol":1999,"Ġpapers":2000,"orm":2001,"Ġplugged":2002,"cess":2003,"ene":2004,"ative":2005,"Ġwhere":2006,"Ġdrive":2007,"ero":2008,"als":2009,"ĠSe":2010,"ooth":2011,"Ġsaus":2012,"Ġwrinkled":2013,"tions":2014,"ister":2015,"Ġchili":2016,"Ġorgan":2017,"Ġmounted":2018,"Plastic":2019,"Ġperf":2020,"door":2021,"light":2022,"Ġ9":2023,"Ġsocks":2024,"Ġlights":2025,"ylind":2026,"Ġdenim":2027,"IT":2028,"Ġfat":2029,"Ġholder":2030,"Ġeat":2031,"Ġscreenshot":2032,"Ġnoodles":2033,"Ġeye":2034,"UT":2035,"ilt":2036,"lassic":2037,"Ġsteak":2038,"Ġlower":2039,"Ġmostly":2040,"Ġsleeve":2041,"Ġappliance":2042,"aut":2043,"nel":2044,"pen":2045,"ĠQ":2046,"Ġcer":2047,"Ġhat":2048,"Ġupper":2049,"Ġshelves":2050,"Ġwrapper":2051,"Ġheadphones":2052,"Ġmenu":2053,"Ġtaken":2054,"Ġlaundry":2055,"Ġcylind":2056,"ĠPro":2057,"Ġhanger":2058,"Ġcleaning":2059,"Ġmacaroni":2060,"ou":2061,"Ġdeter":2062,"by":2063,"ond":2064,"ward":2065,"Ġmir":2066,"ttes":2067,"ĠCoca":2068,"identif":2069,"Ġoz":2070,"Ġtor":2071,"Ġleaf":2072,"mbol":2073,"part":2074,"uzz":2075,"val":2076,"Ġreg":2077,"Ġrel":2078,"ume":2079,"Ġtrans":2080,"Ġslight":2081,"Ġsymbol":2082,"Ġserving":2083,"Ġchildren":2084,"Ġ201":2085,"br":2086,"ded":2087,"nect":2088,"ze":2089,"Ġten":2090,"asted":2091,"Ġvase":2092,"Ġposter":2093,"Ġenter":2094,"Ġimages":2095,"Ġlanguage":2096,"Book":2097,"ream":2098,"Ġthey":2099,"ĠAl":2100,"Ġworn":2101,"ĠOr":2102,"Ġtrim":2103,"Ġbaked":2104,"Ġsubstance":2105,"IMAGE":2106,"Ġpeas":2107,"isement":2108,"Ġtextured":2109,"EN":2110,"cco":2111,"Ġprog":2112,"ĠLe":2113,"mond":2114,"Ġcandle":2115,"Ġsmartphone":2116,"althy":2117,"Ġer":2118,"Ġbel":2119,"Ġwalk":2120,"Ġtablets":2121,"Ġcovering":2122,"po":2123,"Ġass":2124,"Ġcoca":2125,"Ġdesigns":2126,"ĠCoffee":2127,"Ġstuffed":2128,"au":2129,"our":2130,"ware":2131,"Ġblend":2132,"Ġgirl":2133,"asy":2134,"Ġlime":2135,"uth":2136,"Ġant":2137,"Ġcompany":2138,"Ġflash":2139,"ĠIt":2140,"ĠCho":2141,"Ġtrash":2142,"Ġdressing":2143,"Ġconc":2144,"Several":2145,"Person":2146,"anit":2147,"ille":2148,"ĠCO":2149,"Ġpolo":2150,"Ġsheets":2151,"Ġconnect":2152,"Ġcurrently":2153,"ccoli":2154,"Ġtall":2155,"Ġdrap":2156,"Ġshower":2157,"ĠTHE":2158,"Ġel":2159,"Ġbus":2160,"Ġpump":2161,"Ġgu":2162,"Ġvalue":2163,"Ġexpir":2164,"Ġgift":2165,"Ġequip":2166,"Ġcotton":2167,"its":2168,"arn":2169,"alian":2170,"Ġthin":2171,"Ġcontainers":2172,"velo":2173,"Ġpol":2174,"avy":2175,"Ġnoodle":2176,"Top":2177,"gent":2178,"nut":2179,"Ġgum":2180,"uring":2181,"Ġbear":2182,"Ġcarpeted":2183,"Ġmedium":2184,"Ġcircle":2185,"Ġrefr":2186,"Ġtitled":2187,"Ġband":2188,"Ġprice":2189,"Ġcoke":2190,"ors":2191,"Ġnight":2192,"ĠRe":2193,"Ġframed":2194,"'t":2195,"iel":2196,"Ġoil":2197,"tted":2198,"Ġscent":2199,"Ġcars":2200,"Ġdisplays":2201,"Ġcups":2202,"Ġmirror":2203,"Ġequipment":2204,"ore":2205,"pack":2206,"oke":2207,"ĠMic":2208,"Ġprinter":2209,"Ġsized":2210,"Ġadvertisement":2211,"Ġpin":2212,"lace":2213,"ĠDr":2214,"ĠIT":2215,"AL":2216,"Ġ.":2217,"ello":2218,"amic":2219,"ĠDe":2220,"larm":2221,"Ġpurse":2222,"Ġcharger":2223,"Ġmini":2224,"Ġwires":2225,"Ġgoods":2226,"ĠAmerican":2227,"aurant":2228,"Ġinter":2229,"Ġmoney":2230,"Ġform":2231,"ĠEng":2232,"Ġenvelo":2233,"Ġdots":2234,"eds":2235,"Ġtouch":2236,"Ġoutdoor":2237,"One":2238,"ergy":2239,"Ġscale":2240,"corn":2241,"Ġwheel":2242,"Ġperfume":2243,"AB":2244,"Co":2245,"cil":2246,"eo":2247,"net":2248,"hel":2249,"Ġrep":2250,"Ġstrap":2251,"cohol":2252,"Ġpod":2253,"Ġfeature":2254,"ĠStar":2255,"ĠUSB":2256,"Computer":2257,"work":2258,"Ġ(":2259,"Ġbead":2260,"Ġproducts":2261,"LEAR":2262,"Ġgraphic":2263,"Ġrelie":2264,"yard":2265,"Ġwal":2266,"isc":2267,"lustr":2268,"raft":2269,"Ġproble":2270,"ĠWAS":2271,"Ġrestaurant":2272,"Ġblinds":2273,"Ġalarm":2274,"ini":2275,"Ġrecor":2276,"Ġnap":2277,"ider":2278,"ides":2279,"Ġstart":2280,"Ġscr":2281,"Ġspoon":2282,"que":2283,"Ġpoin":2284,"Ġchoice":2285,"ĠValue":2286,"Ġclouds":2287,"Ġplants":2288,"Ġcigarettes":2289,"Ġsanit":2290,"ana":2291,"ĠCal":2292,"Ġwalls":2293,"Ġsweat":2294,"ivid":2295,"Ġsleep":2296,"Ġphotograp":2297,"OW":2298,"ord":2299,"ighter":2300,"ipes":2301,"ĠPLAC":2302,"Ġsalad":2303,"Ġillustr":2304,"ared":2305,"Ġkeep":2306,"Ġbackside":2307,"Ġsock":2308,"Ġbrick":2309,"Ġalcohol":2310,"Ġ200":2311,"Ġnothing":2312,"Ġnecklace":2313,"Ġbaseball":2314,"ney":2315,"place":2316,"Ġjust":2317,"soft":2318,"Ġshape":2319,"Ġplug":2320,"Ġtim":2321,"lay":2322,"Ġbeaut":2323,"ĠCan":2324,"ills":2325,"gether":2326,"Ġsliced":2327,"Ġhardwood":2328,"ier":2329,"enty":2330,"Ġhel":2331,"akers":2332,"colored":2333,"Ġvert":2334,"Ġbroccoli":2335,"Ġparked":2336,"Ġsausage":2337,"Ġslightly":2338,"Ġrefriger":2339,"rosoft":2340,"Ġdel":2341,"akes":2342,"Ġspices":2343,"Ġstands":2344,"Ġcontrols":2345,"Ġsteel":2346,"Ġsideways":2347,"Ġdetergent":2348,"OO":2349,"Yellow":2350,"conut":2351,"glass":2352,"right":2353,"lection":2354,"Ġchest":2355,"Ġpencil":2356,"Ġshadow":2357,"Ġwoven":2358,"Ġorganic":2359,"not":2360,"two":2361,"ĠZ":2362,"Ġfresh":2363,"Ġham":2364,"Ġtogether":2365,"Ġcontent":2366,"Ġindivid":2367,"unky":2368,"Ġexpiration":2369,"Ġoat":2370,"Ġpet":2371,"ram":2372,"Ġcherry":2373,"Ġmob":2374,"Ġdogs":2375,"Ġelectrical":2376,"case":2377,"met":2378,"Ġplain":2379,"Ġcloset":2380,"box":2381,"Ġroad":2382,"ize":2383,"Ġgoing":2384,"Ġceramic":2385,"Ġbatter":2386,"ety":2387,"ily":2388,"ĠGreat":2389,"Ġcookie":2390,"Ġtitle":2391,"ĠPLACED":2392,"HI":2393,"Ġster":2394,"ony":2395,"Ġday":2396,"Ġalmond":2397,"Ġgranola":2398,"Ġmobile":2399,"can":2400,"Ġtell":2401,"Ġcount":2402,"rical":2403,"bury":2404,"Ġzipper":2405,"Ġhorizontal":2406,"ran":2407,"rozen":2408,"Ġlis":2409,"allic":2410,"Ġglasses":2411,"Ġpopcorn":2412,"Ġsnacks":2413,"Ġgarlic":2414,"Ġfireplace":2415,"Ġsanitizer":2416,"aw":2417,"black":2418,"Ġfence":2419,"Ġtool":2420,"Ġthings":2421,"Ġcontents":2422,"ading":2423,"Ġsaying":2424,"Ġdining":2425,"forter":2426,"Ġindic":2427,"Ġbreast":2428,"lor":2429,"Ġbor":2430,"utrition":2431,"estions":2432,"Ġturkey":2433,"uitar":2434,"Ġcomforter":2435,"Ġenvelope":2436,"Look":2437,"oom":2438,"Ġtee":2439,"Ġpor":2440,"nder":2441,"Ġmas":2442,"Ġtooth":2443,"Ġglo":2444,"Ġstr":2445,"ĠDell":2446,"Ġpres":2447,"Ġtiles":2448,"udio":2449,"ĠJoh":2450,"Ġdraped":2451,"ĠMicrosoft":2452,"Brown":2453,"aff":2454,"vers":2455,"ina":2456,"arot":2457,"Ġmaker":2458,"estion":2459,"Ġsmooth":2460,"TEM":2461,"Ġcrackers":2462,"ĠItalian":2463,"ES":2464,"auc":2465,"fast":2466,"hat":2467,"lets":2468,"Ġginger":2469,"Ġsett":2470,"ĠDi":2471,"Ġcontroller":2472,"Ġmetallic":2473,"Ġcheckered":2474,"ield":2475,"dd":2476,"des":2477,"ho":2478,"king":2479,"arge":2480,"ontain":2481,"ĠSo":2482,"Ġknee":2483,"ife":2484,"Ġsandw":2485,"Ġstacked":2486,"ABLE":2487,"Ġboth":2488,"Ġreco":2489,"Ġrack":2490,"Ġroasted":2491,"Ġpound":2492,"ĠRed":2493,"Ġtissues":2494,"Ġsurrounded":2495,"Ġrefrigerator":2496,"Ġstereo":2497,"Silver":2498,"Ġcannot":2499,"Ġlean":2500,"Ġvo":2501,"Ġjug":2502,"Ġrais":2503,"odor":2504,"Ġdrawing":2505,"Ġrecipe":2506,"green":2507,"ĠX":2508,"Ġguitar":2509,"Ġthumb":2510,"Ġchain":2511,"ĠTe":2512,"Ġsnow":2513,"Ġsupp":2514,"Ġblock":2515,"ĠEnglish":2516,"Ġsettings":2517,"AT":2518,"dition":2519,"tor":2520,"tes":2521,"Ġcool":2522,"ably":2523,"Ġshop":2524,"Ġemb":2525,"Ġrib":2526,"Ġrub":2527,"akfast":2528,"Ġspace":2529,"Ġpost":2530,"Ġshould":2531,"tainment":2532,"Ġcabinets":2533,"Packag":2534,"Ġnotebook":2535,"Ġcylindrical":2536,"fla":2537,"vy":2538,"Ġatop":2539,"innam":2540,"Ġhoney":2541,"Ġink":2542,"ames":2543,"chet":2544,"ĠITEM":2545,"Ġquestions":2546,"innamon":2547,"back":2548,"Ġic":2549,"Ġtie":2550,"Ġflip":2551,"ico":2552,"Ġmust":2553,"Ġstat":2554,"ĠSto":2555,"ĠHar":2556,"ĠNew":2557,"Ġspeck":2558,"Ġwallet":2559,"nis":2560,"ness":2561,"Ġcel":2562,"Ġpud":2563,"elf":2564,"Ġdeodor":2565,"Ġmouth":2566,"Ġplacemat":2567,"Ġindividual":2568,"Ġborder":2569,"een":2570,"Ġbare":2571,"arm":2572,"idge":2573,"ĠMc":2574,"ĠMe":2575,"Ġcreamer":2576,"Ġmixed":2577,"Ġpatterns":2578,"Ġslip":2579,"Ġmicrowaveable":2580,"Ġwireless":2581,"Ġarticle":2582,"Ġdecorative":2583,"Ġmaybe":2584,"LO":2585,"pes":2586,"Ġaudio":2587,"Ġgreat":2588,"amond":2589,"Ġdoll":2590,"eef":2591,"Ġwebs":2592,"Ġcoming":2593,"Ġcurtains":2594,"Ġentertainment":2595,"Ġwebsite":2596,"ges":2597,"pad":2598,"Ġ-":2599,"Ġcould":2600,"Ġcoconut":2601,"Ġiss":2602,"Ġcarro":2603,"Ġpeach":2604,"Ġpainted":2605,"ĠiPad":2606,"Ġextra":2607,"ener":2608,"very":2609,"uss":2610,"Ġpersons":2611,"Ġspin":2612,"arent":2613,"ĠUP":2614,"Ġimp":2615,"burger":2616,"Ġgroc":2617,"Ġfigure":2618,"Ġpolka":2619,"Ġdeodorant":2620,"Ġclassic":2621,"ank":2622,"Ġlighter":2623,"arden":2624,"ĠSa":2625,"ĠBUT":2626,"Ġmountain":2627,"ives":2628,"ails":2629,"Ġbookshel":2630,"Ġspeckled":2631,"my":2632,"Ġ$":2633,"Ġut":2634,"anas":2635,"rows":2636,"ĠTh":2637,"Ġdrug":2638,"Ġtaking":2639,"amsung":2640,"ĠMacBook":2641,"bucks":2642,"Ġrecogn":2643,"SE":2644,"Side":2645,"rete":2646,"Ġonto":2647,"roid":2648,"Ġsport":2649,"Ġoptions":2650,"ĠGer":2651,"ĠIn":2652,"Ġcaps":2653,"Ġtruck":2654,"Ġdrinking":2655,"Ġjean":2656,"ERS":2657,"spaper":2658,"Ġbird":2659,"Large":2660,"OP":2661,"Ph":2662,"ging":2663,"Ġpile":2664,"ither":2665,"roger":2666,"ttered":2667,"Ġkit":2668,"ĠCLEAR":2669,"Ġmeas":2670,"Ġinstruction":2671,"Ġvisual":2672,"Ġcons":2673,"This":2674,"lin":2675,"rite":2676,"Ġwipes":2677,"Ġpick":2678,"Ġdet":2679,"Ġhung":2680,"ĠCream":2681,"ĠDel":2682,"ĠCola":2683,"Ġweight":2684,"Ġphotograph":2685,"Ġtwenty":2686,"Ġcharacters":2687,"Ġrelief":2688,"Ġpudding":2689,"Grey":2690,"aches":2691,"bum":2692,"day":2693,"gers":2694,"kes":2695,"made":2696,"og":2697,"sw":2698,"icy":2699,"Ġpictured":2700,"Ġdiamond":2701,"Ġnearby":2702,"Ġvitamins":2703,"Ġtransp":2704,"glasses":2705,"It":2706,"Ġ0":2707,"Ġcalo":2708,"ancy":2709,"ured":2710,"Ġfork":2711,"Ġbul":2712,"Ġcreamy":2713,"ĠPepper":2714,"Ġribb":2715,"Photo":2716,"IC":2717,"reme":2718,"ffy":2719,"Ġcompact":2720,"ĠNOT":2721,"Ġfoil":2722,"Ġpackages":2723,"estle":2724,"Ġspecial":2725,"Ġknitted":2726,"blue":2727,"ior":2728,"Ġfuzz":2729,"look":2730,"Ġcold":2731,"Ġgrap":2732,"aps":2733,"Ġpacked":2734,"Ġany":2735,"Ġyard":2736,"ĠSamsung":2737,"ĠBeef":2738,"Ġspread":2739,"Ġcords":2740,"afe":2741,"Ġserve":2742,"ĠSpan":2743,"Ġtissue":2744,"Ġerror":2745,"Sh":2746,"ike":2747,"Ġcu":2748,"Ġpull":2749,"agna":2750,"Ġthick":2751,"mpt":2752,"Ġlock":2753,"ĠPlay":2754,"Ġsachet":2755,"Ġprob":2756,"izing":2757,"iful":2758,"Ġwarning":2759,"Ġcluttered":2760,"Ġconcrete":2761,"ĠStarbucks":2762,"Le":2763,"Ġpure":2764,"Ġmuff":2765,"Ġtoaster":2766,"Ġlawn":2767,"Ġbean":2768,"Ġsol":2769,"Ġdisk":2770,"ĠEx":2771,"umpled":2772,"Ġbreakfast":2773,"Ġnewspaper":2774,"Ġtarot":2775,"Ġsne":2776,"Ġfont":2777,"Ġtoys":2778,"els":2779,"ĠSm":2780,"ĠBu":2781,"ĠMont":2782,"ĠWhite":2783,"Ġcapture":2784,"Ġveh":2785,"Ġlined":2786,"Ġparking":2787,"Ġbaking":2788,"Ġconnected":2789,"Ġcarrots":2790,"Ġrecognize":2791,"iness":2792,"Ġpress":2793,"ensed":2794,"Ġstone":2795,"Ġboxed":2796,"ama":2797,"Ġquestion":2798,"uality":2799,"Ġsupplements":2800,"Ġbrace":2801,"Ġphotographer":2802,"OL":2803,"bled":2804,"ired":2805,"Ġif":2806,"Ġsch":2807,"Ġsix":2808,"Ġpork":2809,"ics":2810,"tty":2811,"Ġge":2812,"Ġchip":2813,"Ġyarn":2814,"Ġeither":2815,"ized":2816,"Ġalbum":2817,"ĠKroger":2818,"Ġstripe":2819,"Ġpregn":2820,"Ġmessy":2821,"ĠArab":2822,"Station":2823,"Ġvertical":2824,"Ġissues":2825,"pers":2826,"paste":2827,"Ġcare":2828,"Ġpine":2829,"iron":2830,"ĠPure":2831,"Ġheating":2832,"quet":2833,"meal":2834,"Ġelectronics":2835,"Ġwrapping":2836,"Ġpillows":2837,"Ġscented":2838,"Ġillustration":2839,"Ġgrocery":2840,"Ġtransparent":2841,"aid":2842,"cus":2843,"ica":2844,"Ġland":2845,"mint":2846,"MALL":2847,"Ġreflection":2848,"Ġembroid":2849,"cake":2850,"anch":2851,"Ġcopy":2852,"allow":2853,"ets":2854,"Ġcanister":2855,"ĠSte":2856,"ĠBar":2857,"ĠIN":2858,"Ġbutterf":2859,"Ġassort":2860,"Ġelse":2861,"imp":2862,"Ġash":2863,"Ġtun":2864,"Ġcinnamon":2865,"Ġdrop":2866,"Ġnice":2867,"Ġstring":2868,"ĠCr":2869,"ards":2870,"Ġansw":2871,"okia":2872,"ĠTo":2873,"ument":2874,"ĠBlack":2875,"Ġheater":2876,"Ġprot":2877,"Ġalmost":2878,"ĠKraft":2879,"Ġasking":2880,"Ġdrawers":2881,"Ġmashed":2882,"ditional":2883,"Ġbookshelf":2884,"Ġfuzzy":2885,"ĠSpanish":2886,"CD":2887,"rie":2888,"Ġbun":2889,"len":2890,"Ġonion":2891,"Ġdiced":2892,"ĠAd":2893,"Ġpoint":2894,"anta":2895,"Ġcalc":2896,"Ġmarker":2897,"Ġdepicting":2898,"Ġgravy":2899,"Ġtennis":2900,"Ġrepair":2901,"Ġsweatshirt":2902,"Ġsleeping":2903,"Ġprobably":2904,"aco":2905,"cent":2906,"fred":2907,"ps":2908,"Ġpar":2909,"Ġcoin":2910,"Ġlas":2911,"Ġstap":2912,"Ġem":2913,"ĠTra":2914,"Ġmoist":2915,"Ġtri":2916,"Ġingredient":2917,"Ġadd":2918,"ensil":2919,"Ġshades":2920,"Ġwalking":2921,"Ġnapkin":2922,"ĠCanad":2923,"Ġspinach":2924,"Ġutensil":2925,"ming":2926,"off":2927,"tra":2928,"ometer":2929,"apple":2930,"Ġvac":2931,"Ġunidentif":2932,"Ġuser":2933,"aving":2934,"Ġportable":2935,"balls":2936,"Ġherb":2937,"Ġeyes":2938,"ĠMarie":2939,"Ġprepared":2940,"Ġeggs":2941,"ĠGerman":2942,"fredo":2943,"iver":2944,"rew":2945,"ttom":2946,"Ġgarden":2947,"alls":2948,"ĠCoke":2949,"ĠTABLE":2950,"ĠNokia":2951,"Ġsunglasses":2952,"close":2953,"Ġdecorated":2954,"Ġgarment":2955,"Ġbraille":2956,"Ġcountry":2957,"Ġpresent":2958,"50":2959,"Quality":2960,"del":2961,"ious":2962,"âĢ":2963,"Ġtab":2964,"Ġpul":2965,"ats":2966,"Ġboot":2967,"tern":2968,"vere":2969,"Ġang":2970,"ĠSH":2971,"Ġtextbook":2972,"ĠHoney":2973,"Ġoutlet":2974,"Ġbedsp":2975,"ept":2976,"Ġcondensed":2977,"Ġzero":2978,"ĠPotter":2979,"Ġkids":2980,"Ġbattery":2981,"Ġtoothpaste":2982,"Ġmustard":2983,"Ġbedspread":2984,"Ch":2985,"Nutrition":2986,"haps":2987,"ose":2988,"range":2989,"uro":2990,"ino":2991,"onal":2992,"Ġfly":2993,"elnut":2994,"etch":2995,"Ġrece":2996,"Ġnon":2997,"ional":2998,"Ġstor":2999,"ĠCar":3000,"Ġchunky":3001,"Ġsevere":3002,"body":3003,"Ġdist":3004,"acon":3005,"uble":3006,"azelnut":3007,"like":3008,"Ġfigur":3009,"Ġdriveway":3010,"ĠQu":3011,"Ġbusiness":3012,"Ġproblem":3013,"Ġsandwich":3014,"ĠPlayStation":3015,"AM":3016,"gresso":3017,"uum":3018,"Ġol":3019,"Ġsuit":3020,"Ġclip":3021,"Ġput":3022,"res":3023,"Ġhous":3024,"Ġsec":3025,"Ġloc":3026,"Ġappear":3027,"ĠEasy":3028,"Ġmarbled":3029,"Ġinstal":3030,"Ġgrained":3031,"alog":3032,"Ġpockets":3033,"Ġbelt":3034,"ĠCallend":3035,"Ġoatmeal":3036,"Ġbracelet":3037,"gar":3038,"iable":3039,"Ġtalk":3040,"Ġfar":3041,"Ġgall":3042,"Ġgrow":3043,"Ġflooring":3044,"ĠGr":3045,"Ġpeaches":3046,"Ġtypes":3047,"Ġfocus":3048,"Ġpatio":3049,"uffer":3050,"Ġshining":3051,"Ġhorse":3052,"Ġholes":3053,"Ġentire":3054,"ontainer":3055,"Ġvacuum":3056,"ĠCallender":3057,"AND":3058,"ĠCro":3059,"Ġpos":3060,"Ġmore":3061,"Ġnuts":3062,"Ġvariety":3063,"Ġdescribing":3064,"Ġfeatures":3065,"HITE":3066,"Ġschool":3067,"Ġpregnancy":3068,"Ġtriang":3069,"eb":3070,"zer":3071,"Ġsuch":3072,"Ġgas":3073,"ases":3074,"urple":3075,"ental":3076,"aking":3077,"Ġflag":3078,"ĠRice":3079,"Ġpackets":3080,"Ġtherm":3081,"Ġquilt":3082,"Ġminut":3083,"OTT":3084,"sert":3085,"Ġbanana":3086,"Ġfluffy":3087,"ĠChoice":3088,"Ġvehicle":3089,"no":3090,"vice":3091,"itr":3092,"ising":3093,"iece":3094,"Ġscene":3095,"Ġrock":3096,"Ġdispen":3097,"berries":3098,"itching":3099,"Ġgallon":3100,"OU":3101,"rance":3102,"nde":3103,"Ġfle":3104,"Ġshaker":3105,"Ġremo":3106,"irst":3107,"Ġpersonal":3108,"ĠSc":3109,"Ġbrush":3110,"ĠDew":3111,"ĠHot":3112,"ĠHam":3113,"Ġchedd":3114,"ios":3115,"Ġmultico":3116,"dless":3117,"Ġweb":3118,"Ġtowels":3119,"ucc":3120,"Ġbroth":3121,"Ġcloudy":3122,"Ġstainless":3123,"Ġgroup":3124,"Ġcrock":3125,"Ġbeautiful":3126,"Ġsports":3127,"Ġlasagna":3128,"Ġcheddar":3129,"Ġiced":3130,"Ġact":3131,"Ġaut":3132,"Ġsim":3133,"Ġsides":3134,"ering":3135,"Ġpass":3136,"Ġfun":3137,"abel":3138,"amel":3139,"Ġmodel":3140,"ĠHouse":3141,"reek":3142,"ĠLite":3143,"Ġ24":3144,"Ġneed":3145,"Ġjew":3146,"rimp":3147,"Ġdryer":3148,"Packaging":3149,"Ġcapsu":3150,"Ġdispenser":3151,"SH":3152,"aj":3153,"hold":3154,"ky":3155,"lies":3156,"well":3157,"Ġoval":3158,"inese":3159,"Ġtreat":3160,"Ġdot":3161,"Ġhall":3162,"Ġsciss":3163,"ĠSch":3164,"ipped":3165,"Ġprompt":3166,"Ġpouch":3167,"Ġteal":3168,"ants":3169,"Ġseems":3170,"Ġmicro":3171,"Ġwasher":3172,"Ġcrumpled":3173,"Ġtower":3174,"Ġliter":3175,"Ġsuper":3176,"Ġolder":3177,"Ġmatt":3178,"ĠProgresso":3179,"Ġbeads":3180,"Ġlisted":3181,"Ġcalcula":3182,"OTTLE":3183,"cer":3184,"Ġrela":3185,"ctions":3186,"Ġrot":3187,"ĠBr":3188,"ĠBlue":3189,"Ġcordless":3190,"Ġpatch":3191,"Ġcigarette":3192,"Ġvitamin":3193,"Ġtimer":3194,"oomed":3195,"Ġhouses":3196,"Cor":3197,"Dark":3198,"ila":3199,"ernel":3200,"asian":3201,"Ġnavy":3202,"ĠSun":3203,"Ġele":3204,"Ġlabels":3205,"Ġoper":3206,"ĠChinese":3207,"ĠiPod":3208,"Ġperhaps":3209,"Ġsquares":3210,"Ġ50":3211,"nited":3212,"Ġprogram":3213,"Ġrubber":3214,"ĠHarry":3215,"Ġprotect":3216,"Ġmoistur":3217,"Ġscissors":3218,"Ġmattress":3219,"Cle":3220,"Glass":3221,"UR":3222,"Un":3223,"fe":3224,"mill":3225,"paper":3226,"ĠAn":3227,"Ġben":3228,"Ġgames":3229,"ters":3230,"Ġthing":3231,"Ġstitching":3232,"Ġchop":3233,"amily":3234,"ĠBO":3235,"Ġhealthy":3236,"ĠHP":3237,"Ġmanual":3238,"Ġusing":3239,"amph":3240,"Ġswitch":3241,"Ġstrawberry":3242,"Ġtravel":3243,"Ġtouching":3244,"OOD":3245,"ĠStouffer":3246,"ĠMonte":3247,"Frozen":3248,"ged":3249,"Ġiron":3250,"Ġtread":3251,"Ġbacon":3252,"erc":3253,"alley":3254,"ĠSw":3255,"ĠTom":3256,"ĠMex":3257,"weet":3258,"aucasian":3259,"Ġvolu":3260,"Ġembroidered":3261,"AIN":3262,"Be":3263,"Ġfill":3264,"Ġcoat":3265,"Ġcough":3266,"alt":3267,"Ġlady":3268,"Ġvine":3269,"thing":3270,"Ġheat":3271,"aki":3272,"Ġcards":3273,"Ġdried":3274,"Ġcooked":3275,"Ġdoors":3276,"Ġdoorway":3277,"Ġmeatballs":3278,"Ġpowered":3279,"Ġcharging":3280,"alend":3281,"Ġcollection":3282,"Ġsolid":3283,"Ġdrops":3284,"Ġstapler":3285,"Ġstorage":3286,"bor":3287,"dge":3288,"ele":3289,"pt":3290,"Ġway":3291,"loaf":3292,"Ġcoaster":3293,"Ġshrimp":3294,"Ġlots":3295,"ĠBOTTLE":3296,"Ġflour":3297,"ĠKool":3298,"iano":3299,"Ġknife":3300,"Ġsodium":3301,"Ġcran":3302,"Ġcrunch":3303,"Ġknobs":3304,"fore":3305,"ĠCrock":3306,"amphlet":3307,"alendar":3308,"Wood":3309,"ton":3310,"erios":3311,"esco":3312,"Ġtabletop":3313,"Ġstamp":3314,"Ġpolish":3315,"ĠLight":3316,"Ġchew":3317,"oli":3318,"Ġnumer":3319,"Ġdesigned":3320,"sole":3321,"Ġblonde":3322,"Ġrectangle":3323,"Ġtreadmill":3324,"ilar":3325,"kely":3326,"son":3327,"writ":3328,"Ġidentif":3329,"Ġwin":3330,"Ġhook":3331,"Ġlay":3332,"Ġbackyard":3333,"ĠCor":3334,"Ġseeds":3335,"ĠSanta":3336,"ĠWHITE":3337,"ĠUnited":3338,"ACK":3339,"ONT":3340,"ĠBody":3341,"ĠHealthy":3342,"ERSON":3343,"Ġgrowing":3344,"Ġlu":3345,"Ġpamphlet":3346,"Ġfin":3347,"Ġfield":3348,"Ġwithout":3349,"Ġdell":3350,"Ġhim":3351,"Ġmight":3352,"aged":3353,"Ġtables":3354,"Ġhandles":3355,"Ġlabelled":3356,"ully":3357,"tyle":3358,"ĠUn":3359,"Ġhairy":3360,"Partial":3361,"Ġbank":3362,"Ġsleeved":3363,"Ġwrinkles":3364,"Ġshoulder":3365,"LOSE":3366,"Ġthermometer":3367,"Ġmulticolored":3368,"Mult":3369,"pos":3370,"xe":3371,"Ġbit":3372,"Ġcla":3373,"Ġfix":3374,"Ġmot":3375,"Ġgla":3376,"asp":3377,"Ġkept":3378,"Ġfridge":3379,"Ġrouter":3380,"Ġjo":3381,"ĠGe":3382,"Ġexerc":3383,"Ġfancy":3384,"Ġconditioning":3385,"Ġhearts":3386,"Ġstars":3387,"nson":3388,"Ġtort":3389,"Ġcalories":3390,"itrus":3391,"Ġsimilar":3392,"Ġjewel":3393,"ĠMexican":3394,"Cola":3395,"Half":3396,"end":3397,"men":3398,"Ġtick":3399,"Ġinfo":3400,"abb":3401,"Ġthread":3402,"ontrol":3403,"Ġkernel":3404,"rad":3405,"Ġsoy":3406,"Ġcomple":3407,"inder":3408,"Ġrose":3409,"Ġhealth":3410,"Ġlikely":3411,"Ġdishes":3412,"ĠInd":3413,"Ġenergy":3414,"Ġcandies":3415,"Ġdollars":3416,"Ġsticking":3417,"Ġdecoration":3418,"Ġburner":3419,"Ġanti":3420,"Ġhamburger":3421,"ET":3422,"Pink":3423,"Sc":3424,"What":3425,"hand":3426,"lit":3427,"rain":3428,"was":3429,"Ġpr":3430,"ona":3431,"rofo":3432,"Ġshade":3433,"Ġstop":3434,"illed":3435,"Ġcane":3436,"ĠCap":3437,"Ġbrownie":3438,"Ġdew":3439,"pped":3440,"Ġprocess":3441,"ĠFr":3442,"ango":3443,"Ġcooker":3444,"structions":3445,"Ġtiny":3446,"ĠStates":3447,"Ġdials":3448,"ellogg":3449,"Ġmuffin":3450,"Ġpineapple":3451,"Ġflyer":3452,"Ġcalculator":3453,"rofoam":3454,"TI":3455,"TER":3456,"cing":3457,"gin":3458,"ken":3459,"vet":3460,"Ġaid":3461,"Ġbite":3462,"Ġbake":3463,"Ġcub":3464,"Ġcalendar":3465,"head":3466,"Ġhaving":3467,"ower":3468,"stick":3469,"irk":3470,"Ġupright":3471,"ĠSN":3472,"Ġpotted":3473,"Ġdevices":3474,"Ġ16":3475,"Ġdrinks":3476,"Ġbrightly":3477,"Ġconsole":3478,"Ġallergy":3479,"Ġdrawn":3480,"Ġdrawer":3481,"Ġwheat":3482,"Ġreflecting":3483,"ĠJoe":3484,"Ġdepicted":3485,"Ġkidney":3486,"etchup":3487,"Ġexercise":3488,"mium":3489,"ole":3490,"rup":3491,"Ġaway":3492,"Ġcage":3493,"Ġhazelnut":3494,"Ġlamb":3495,"lution":3496,"Ġstation":3497,"Ġblueberry":3498,"ĠSam":3499,"Ġlabeling":3500,"iller":3501,"Ġobsc":3502,"ĠNestle":3503,"Ġsquee":3504,"Ġseasoned":3505,"ification":3506,"Ġpointing":3507,"Looks":3508,"Ġleaning":3509,"ĠArabic":3510,"Ġtuna":3511,"Ġunidentifiable":3512,"Ġcapsules":3513,"ilad":3514,"mber":3515,"of":3516,"tz":3517,"ustr":3518,"vi":3519,"Ġale":3520,"Ġblu":3521,"Ġpup":3522,"Ġpiano":3523,"Ġbold":3524,"eddy":3525,"Ġinse":3526,"ased":3527,"Ġthan":3528,"Ġstating":3529,"ract":3530,"Ġeasy":3531,"Ġdoc":3532,"ĠBen":3533,"Ġsay":3534,"Ġmode":3535,"Ġapples":3536,"Ġopening":3537,"ĠLED":3538,"ĠKing":3539,"Ġgarb":3540,"Ġdishwas":3541,"scription":3542,"Ġbirth":3543,"alan":3544,"pose":3545,"Ġstartup":3546,"affe":3547,"Ġshopping":3548,"ĠUPC":3549,"Ġcutting":3550,"ĠButter":3551,"Ġfigurine":3552,"Ġhallway":3553,"Corner":3554,"bag":3555,"bread":3556,"ik":3557,"tched":3558,"wan":3559,"Ġamo":3560,"Ġsong":3561,"Ġlace":3562,"iding":3563,"Ġstory":3564,"Ġkh":3565,"Ġornam":3566,"Ġuphol":3567,"bottle":3568,"Ġfoods":3569,"Ġsour":3570,"Ġsmok":3571,"Ġdouble":3572,"Ġspark":3573,"coa":3574,"ryst":3575,"colate":3576,"Ġseries":3577,"Ġcorded":3578,"Ġmint":3579,"Ġcables":3580,"iscuit":3581,"ĠDiet":3582,"ĠSoup":3583,"Ġcaptured":3584,"Ġinstalla":3585,"Clear":3586,"Ġupholster":3587,"ift":3588,"kins":3589,"put":3590,"Ġwired":3591,"Ġfile":3592,"arp":3593,"ality":3594,"Ġmale":3595,"omes":3596,"eth":3597,"Ġrear":3598,"ĠCLOSE":3599,"ĠSony":3600,"Ġdessert":3601,"ĠBL":3602,"ppers":3603,"cond":3604,"ĠFOR":3605,"Ġsticks":3606,"Ġaccess":3607,"Ġsyrup":3608,"Ġcircles":3609,"Ġ40":3610,"Ġbuildings":3611,"Ġpeanuts":3612,"aired":3613,"Ġcolla":3614,"ĠJohnson":3615,"Ġpulled":3616,"Ġdistance":3617,"Ġposition":3618,"Ġinsect":3619,"Bag":3620,"Container":3621,"UP":3622,"mine":3623,"uced":3624,"Ġcitrus":3625,"Ġmiss":3626,"Ġmail":3627,"Ġlamin":3628,"Ġketchup":3629,"amed":3630,"Ġloading":3631,"ĠPh":3632,"ĠPre":3633,"Ġspots":3634,"Ġbooklet":3635,"Ġapplic":3636,"ĠGold":3637,"ĠKirk":3638,"Ġ14":3639,"Ġtank":3640,"Ġadj":3641,"Ġquar":3642,"Ġmeatloaf":3643,"Ġservice":3644,"Ġfolder":3645,"Ġpaint":3646,"Ġpepperoni":3647,"Ġrolls":3648,"Ġprepar":3649,"ĠAmerica":3650,"Ġsidewalk":3651,"ĠĠĠĠ":3652,"Ġ2012":3653,"ĠJohn":3654,"Ġcelery":3655,"aspberry":3656,"Ġinstallation":3657,"Label":3658,"Purple":3659,"UN":3660,"You":3661,"gne":3662,"iant":3663,"iving":3664,"Ġtake":3665,"Ġteddy":3666,"Ġbin":3667,"Ġfast":3668,"Ġdust":3669,"logy":3670,"Ġwhis":3671,"Ġnail":3672,"Ġleash":3673,"Ġbrass":3674,"Ġsmaller":3675,"ĠAs":3676,"ĠKellogg":3677,"Ġspeakers":3678,"Ġhousehold":3679,"Ġpossible":3680,"Ġdietary":3681,"Ġcrossed":3682,"APSH":3683,"Ġtorso":3684,"Ġpumpkin":3685,"Ġporch":3686,"Ġstatue":3687,"ĠSauce":3688,"Ġanswers":3689,"ĠBOX":3690,"Ġvolume":3691,"APSHOT":3692,"ners":3693,"Ġes":3694,"inz":3695,"Ġslo":3696,"Ġmap":3697,"ĠSpe":3698,"Ġcologne":3699,"Ġspir":3700,"ĠFar":3701,"ĠWIT":3702,"Ġpeppers":3703,"ments":3704,"Ġjars":3705,"Ġliquor":3706,"Ġchocolates":3707,"Ġmaroon":3708,"Ġinstall":3709,"Ġsoftware":3710,"ĠCheese":3711,"Ġrecord":3712,"Looking":3713,"ĠWITH":3714,"Four":3715,"IS":3716,"Light":3717,"lla":3718,"ses":3719,"Ġtro":3720,"Ġbest":3721,"Ġwild":3722,"leen":3723,"isine":3724,"ically":3725,"elon":3726,"Ġret":3727,"Ġnet":3728,"ape":3729,"cher":3730,"aded":3731,"Ġcomplet":3732,"ĠBR":3733,"ĠBro":3734,"Ġdeck":3735,"Ġspring":3736,"Ġcaramel":3737,"Ġcoloring":3738,"itched":3739,"ĠNe":3740,"Ġ11":3741,"Ġ15":3742,"Ġstock":3743,"Ġtrain":3744,"Ġkne":3745,"ĠVe":3746,"Ġcris":3747,"Ġzoomed":3748,"ĠMarsh":3749,"Ġadvertising":3750,"ormel":3751,"ĠSeason":3752,"Ġ90":3753,"Ġicons":3754,"Ġmeasuring":3755,"Ġsneaker":3756,"Ġemble":3757,"Ġherbal":3758,"Ġcompletely":3759,"bow":3760,"ls":3761,"mark":3762,"tray":3763,"Ġbell":3764,"Ġsla":3765,"Ġcity":3766,"erries":3767,"Ġfirst":3768,"urity":3769,"ands":3770,"ushed":3771,"Ġscrew":3772,"ipt":3773,"sette":3774,"ĠTim":3775,"Ġslices":3776,"Ġflowered":3777,"udge":3778,"Ġshapes":3779,"aily":3780,"Ġtakes":3781,"Ġounces":3782,"clear":3783,"valia":3784,"ĠChocolate":3785,"illsbury":3786,"Ġribbon":3787,"Ġashtray":3788,"IR":3789,"MP":3790,"ais":3791,"male":3792,"picture":3793,"vo":3794,"Ġaqu":3795,"ita":3796,"rox":3797,"Ġdash":3798,"loe":3799,"elve":3800,"stial":3801,"Ġstair":3802,"ĠCla":3803,"Ġupon":3804,"Ġseated":3805,"Ġrain":3806,"Ġrim":3807,"Ġroot":3808,"ĠBrit":3809,"ĠMix":3810,"Ġwallpaper":3811,"ĠHormel":3812,"Ġmem":3813,"ĠLas":3814,"Ġ19":3815,"Ġfemale":3816,"ĠEl":3817,"Ġtrack":3818,"ĠValley":3819,"Ġshelving":3820,"Ġtowards":3821,"Ġthemed":3822,"ĠBetty":3823,"LACK":3824,"yardee":3825,"Ġproblems":3826,"Ġbeauty":3827,"Ġdetails":3828,"OLD":3829,"Ġbutterfly":3830,"Ġassorted":3831,"ĠQuaker":3832,"ĠSchwan":3833,"ĠCrocker":3834,"Multiple":3835,"Ġbirthday":3836,"Aid":3837,"Corm":3838,"Ġwa":3839,"ert":3840,"Ġpages":3841,"Ġcovers":3842,"Ġgener":3843,"Ġrese":3844,"oods":3845,"ird":3846,"ĠCol":3847,"ĠClassic":3848,"ĠCONT":3849,"Ġvent":3850,"Ġyear":3851,"ĠTr":3852,"Ġbug":3853,"Ġpods":3854,"plastic":3855,"Ġdiag":3856,"ĠFOOD":3857,"Ġblankets":3858,"Ġsets":3859,"ĠVer":3860,"Ġcrumb":3861,"Ġspeed":3862,"Instructions":3863,"Ġcondim":3864,"appy":3865,"Ġpopular":3866,"Ġgour":3867,"Ġincludes":3868,"Ġcoupon":3869,"Ġsandal":3870,"Ġhorizontally":3871,"Ġregular":3872,"Ġpinto":3873,"anasonic":3874,"Ġaddress":3875,"Ġcranberry":3876,"Ġticket":3877,"Ġamount":3878,"leenex":3879,"Ġemblem":3880,"Cormick":3881,"Gray":3882,"NC":3883,"small":3884,"ually":3885,"Ġwill":3886,"nding":3887,"anical":3888,"ella":3889,"Ġnamed":3890,"apter":3891,"Ġbackpack":3892,"ĠCreek":3893,"Ġsecond":3894,"Ġfrag":3895,"ĠTO":3896,"ĠPillsbury":3897,"aked":3898,"ĠMan":3899,"ĠDo":3900,"Ġdarker":3901,"Ġapps":3902,"Ġparts":3903,"ĠLCD":3904,"ĠIMAGE":3905,"ĠNatural":3906,"Ġramen":3907,"Ġblood":3908,"Ġballs":3909,"Ġworks":3910,"Ġtraditional":3911,"ĠSmart":3912,"ELL":3913,"fess":3914,"ties":3915,"Ġrow":3916,"Ġbal":3917,"held":3918,"lock":3919,"Ġmain":3920,"Ġthrow":3921,"aptop":3922,"ĠShe":3923,"Ġspicy":3924,"ĠFresh":3925,"ĠNo":3926,"Ġgrill":3927,"Ġfoam":3928,"Ġhangs":3929,"Ġquality":3930,"Bottom":3931,"ashion":3932,"Ġblurred":3933,"Ġmusical":3934,"Ġdecorations":3935,"Ġlemonade":3936,"Ġguide":3937,"ĠTea":3938,"Ġminutes":3939,"Ġbench":3940,"Ġmissing":3941,"Orange":3942,"Paper":3943,"wash":3944,"ination":3945,"Ġbene":3946,"Ġcast":3947,"lait":3948,"Ġcow":3949,"Ġhood":3950,"Ġres":3951,"Ġrequ":3952,"lular":3953,"oplait":3954,"Ġeight":3955,"Ġsolution":3956,"ĠTesco":3957,"ĠBlend":3958,"Ġsale":3959,"ĠDis":3960,"Ġoutline":3961,"Ġpretz":3962,"arious":3963,"Ġnotes":3964,"Ġedges":3965,"ĠCDs":3966,"ARD":3967,"ivers":3968,"Ġindoor":3969,"Ġblouse":3970,"Ġpeppermint":3971,"Ġswirl":3972,"ĠBeans":3973,"ĠHeinz":3974,"Ġscrat":3975,"Ġslippers":3976,"Ġmicrophone":3977,"Wooden":3978,"Ġjewelry":3979,"Ġdocument":3980,"Ġbeneath":3981,"20":3982,"AD":3983,"Ex":3984,"IG":3985,"flow":3986,"house":3987,"Ġsat":3988,"Ġclass":3989,"Ġwide":3990,"Ġfamily":3991,"ara":3992,"apan":3993,"chilad":3994,"Ġlens":3995,"Ġfrost":3996,"anges":3997,"iber":3998,"ĠGiant":3999}